[PAD]
[UNK]
[START]
[END]
!
"
#
$
%
&
'
(
)
*
+
,
-
.
/
0
1
2
3
4
5
6
7
8
9
:
;
<
=
>
?
@
A
B
C
D
E
F
G
H
I
J
K
L
M
N
O
P
Q
R
S
T
U
V
W
X
Y
Z
[
\
]
^
_
`
a
b
c
d
e
f
g
h
i
j
k
l
m
n
o
p
q
r
s
t
u
v
w
x
y
z
{
}
~
 
¡
¢
£
¤
¥
§
¨
©
ª
¬
¯
°
±
²
³
´
µ
¶
·
¸
¹
º
¼
½
¾
¿
À
Á
Â
Ã
Ä
Å
Æ
Ç
É
Ê
Ë
Ì
Í
Î
Ï
Ð
Ñ
Ò
Ó
Ô
Ö
×
Ø
Ú
Ü
Ý
Þ
ß
à
á
â
ã
ä
å
æ
ç
è
é
ê
ë
ì
í
î
ï
ð
ñ
ò
ó
ô
õ
ö
÷
ø
ù
ú
û
ü
ý
þ
ÿ
ć
Č
č
ę
ğ
İ
ı
Ľ
Ł
ł
ń
ō
œ
Ř
ř
Ś
Ş
ş
Š
š
ť
ż
ž
ư
Α
Β
Ε
Η
Ι
Μ
Ν
Ο
Τ
Υ
ί
ν
ο
ρ
υ
φ
Њ
А
В
З
И
Й
К
М
П
Р
С
Х
Э
а
б
в
г
д
е
ж
з
и
й
к
л
м
н
о
п
р
с
т
у
х
ц
ч
ш
ь
ю
я
฀
ᵒ
ḍ
ṭ
ạ
ấ
 
‐
‒
–
—
―
‘
’
‚
“
”
•
…
′
₣
€
ℓ
™
⅜
−
≤
─
★
☆
♥
♪
♫
♬
　
う
っ
な
の
へ
ほ
る
を
エ
シ
ヌ
ブ
ル
ー
久
孝
川
手
暗
真
藤
闇
밚
ﬁ
ﬂ
�
you
the
to
it
of
and
that
in
You
is
me
for
on
have
this
re
was
your
be
we
my
not
It
know
with
do
are
##s
can
What
he
what
don
We
And
just
all
here
like
ll
out
The
He
him
up
about
get
No
right
there
they
at
That
go
her
one
so
but
want
ve
got
will
no
Oh
think
from
But
if
them
she
his
Well
as
now
So
see
who
an
going
gonna
time
us
back
were
been
did
Yeah
good
would
had
They
This
She
How
come
need
when
or
some
say
Hey
our
##ing
take
has
could
by
man
down
didn
way
Okay
how
something
If
tell
said
There
more
really
Come
too
make
then
All
Don
##ed
over
Why
little
never
people
should
off
Do
mean
let
Yes
am
only
look
their
My
Let
thing
love
any
Just
very
God
much
Now
two
doing
into
okay
why
where
those
life
find
##y
Where
help
give
day
Are
Who
work
Mr
even
before
still
other
Is
than
##d
Look
because
sure
sorry
anything
##e
well
these
first
##er
thought
talk
again
Not
away
call
told
home
night
Get
last
Your
things
guy
won
##a
after
must
better
Good
years
around
made
When
long
name
Can
believe
ever
put
In
##ly
place
nothing
please
Did
always
doesn
guys
Then
old
great
money
feel
everything
keep
does
##t
new
through
kind
which
lot
##r
sir
Go
leave
coming
Please
done
left
wanted
being
##n
Maybe
hear
##o
came
own
might
girl
Here
talking
big
else
Allah
dead
understand
course
may
Thank
stop
house
another
kill
wrong
bad
uh
found
enough
isn
someone
happened
looking
trying
father
world
fine
hell
same
ask
three
best
care
every
getting
car
Uh
saw
son
wasn
went
today
friend
Because
real
##i
show
mother
together
For
family
remember
nice
wait
job
room
To
Right
Hi
knew
seen
One
already
many
stay
yeah
mind
next
yourself
fucking
used
took
Lord
most
idea
called
head
wouldn
try
##es
baby
saying
heard
whole
year
Have
morning
woman
maybe
wanna
live
while
Wait
gotta
Hello
men
Of
##l
boy
killed
yet
wife
His
days
guess
Sorry
without
use
shit
move
pretty
ago
alone
ready
problem
hard
OK
start
gone
matter
end
myself
until
Take
also
such
school
both
shall
few
case
haven
lost
die
Tell
meet
says
As
brother
couldn
bit
face
friends
bring
anyone
wants
phone
once
Like
huh
its
Or
See
##in
run
actually
play
working
happy
having
knows
hand
thinking
part
each
hope
##on
tonight
fuck
since
true
second
against
stuff
Dr
Dad
turn
kid
under
##h
gave
worry
dad
tomorrow
business
heart
person
Stop
kids
happen
Give
far
taking
Listen
soon
Nothing
minute
open
At
Our
death
door
##al
means
yes
later
truth
supposed
late
deal
week
##m
crazy
listen
pay
Mom
minutes
change
eat
hurt
hands
making
least
ain
fight
police
between
party
point
mom
probably
everyone
looks
body
cause
Thanks
hit
chance
thank
With
hours
water
Excuse
five
inside
number
asked
important
different
##k
eyes
set
wish
##man
fun
beautiful
exactly
sent
makes
times
story
word
##ers
Sure
side
blood
##ie
shot
rest
daughter
reason
drink
ass
Will
read
young
started
hold
break
close
afraid
sleep
watch
sit
Mrs
died
behind
gets
children
four
anymore
met
waiting
##le
fire
easy
10
high
town
brought
moment
game
husband
comes
##u
couple
On
##g
Sir
free
office
able
gun
married
000
news
power
mine
months
question
YOU
needs
check
speak
child
em
though
trouble
Miss
goes
Which
##us
Ah
line
quite
walk
plan
telling
forget
save
stand
trust
These
tried
half
whatever
Would
country
full
somebody
front
women
bitch
hate
yours
bed
New
sister
answer
clear
order
outside
promise
hot
running
alive
Two
doctor
almost
cut
Um
book
war
funny
everybody
safe
become
either
team
fact
##en
aren
living
girls
Fuck
light
Me
Say
miss
##an
taken
##ion
hour
um
food
stupid
Be
Great
sick
Everything
John
six
buy
Those
ahead
past
serious
Some
Jack
meeting
##ry
##ic
Keep
along
earth
send
20
Wow
dinner
Hold
Tom
himself
lives
hey
parents
lose
By
##S
city
Even
Put
Bye
Nice
##te
dog
feeling
pick
boys
Very
cool
leaving
After
damn
From
scared
law
murder
anyway
known
seems
given
thanks
Jesus
cannot
sex
##p
small
Got
luck
company
##ity
control
THE
human
Does
seem
##or
sign
asking
date
Only
shouldn
lady
lie
Captain
others
upon
sense
sort
30
Her
drive
turned
00
hair
##th
##ting
figure
Was
happens
perfect
follow
dear
Mm
weeks
Fine
Man
May
Shut
Help
shoot
special
##ch
##ter
honey
fast
playing
cold
million
fear
Something
ones
sound
##rs
touch
future
questions
##ies
return
glad
##ness
possible
anybody
top
win
Could
People
##ce
shut
somewhere
till
##ment
hospital
Nobody
Him
calling
Never
choice
less
system
felt
missing
Shit
Stay
works
dream
Any
##ia
First
loved
month
needed
catch
worked
black
clean
fault
An
##ne
Sam
moving
longer
happening
worth
message
secret
##able
picture
takes
words
bet
evidence
eye
information
kidding
land
weird
mistake
ship
##z
seeing
straight
evil
government
sweet
##ling
Michael
boss
changed
report
TO
Whatever
Really
strong
Every
among
explain
Cause
air
weren
oh
write
Damn
looked
##re
meant
##c
feet
class
Someone
piece
caught
##b
##el
Three
nobody
white
##ine
Actually
##ck
12
Make
##is
##x
building
coffee
dance
Looks
early
finally
ten
George
kept
learn
wedding
Whoa
attack
lead
security
totally
fall
music
##ge
##ful
Isn
lucky
Daddy
pain
##ation
##ted
list
mad
thinks
About
##less
##nt
hang
ride
road
Everyone
protect
state
Day
Remember
except
busy
giving
sounds
wonder
##ist
dark
ye
Father
##est
50
born
near
nor
rather
watching
worse
indeed
birthday
beat
certain
during
handle
##ble
15
Christmas
entire
welcome
Charlie
worried
York
decided
street
##D
Everybody
crime
saved
throw
##ra
Joe
bag
missed
poor
Frank
expect
pull
step
red
single
mouth
Think
sometimes
Leave
none
evening
floor
act
amazing
drop
##it
IT
completely
girlfriend
movie
Mike
buddy
spend
David
gentlemen
bar
lying
##um
Huh
careful
paid
pass
Move
group
##ive
Welcome
anywhere
situation
##na
talked
##ian
##st
##ty
American
across
clothes
##tion
Doctor
age
broke
middle
short
whom
100
box
court
brain
peace
##ary
certainly
table
test
themselves
tired
Mary
god
boyfriend
key
paper
wonderful
Call
cell
join
using
voice
wear
Hmm
Mother
accident
finish
hasn
hide
sell
space
card
ring
ma
offer
personal
##ING
Perhaps
seven
smell
##ts
Didn
ground
prison
terrible
##ar
##ton
moved
Peter
whether
Watch
dangerous
present
stopped
swear
relationship
yesterday
bought
forever
record
fix
killer
suppose
##T
lawyer
quiet
victim
broken
calls
##f
soul
simple
wake
wearing
ball
charge
hmm
honest
normal
##E
Last
cover
killing
President
boat
spent
bye
cop
finished
public
respect
seat
share
##A
##ate
agree
doubt
##et
America
##ant
realize
Still
trip
ya
mission
problems
scene
song
##se
area
forgot
kiss
ran
visit
##0
Anyway
forward
stick
attention
strange
Since
blow
instead
lunch
eight
interested
proud
King
TV
marry
smart
club
feels
created
Honey
station
##2
Open
fair
force
college
within
Sit
mess
##N
Earth
Henry
Ok
plane
truck
fighting
##la
Big
More
forgive
loves
staying
sun
window
excuse
hotel
private
##Y
##ma
##son
##w
AND
Anything
lovely
partner
position
##ping
Christ
Ooh
Paul
ice
letter
likes
quick
sitting
11
apartment
dress
history
lived
machine
prove
Once
difficult
standing
Should
camera
cops
store
support
Ben
General
fell
##ley
Am
Try
definitely
level
marriage
train
witness
cash
reach
wall
darling
faith
hundred
##ka
Hurry
Too
appreciate
contact
named
Sometimes
favor
fly
rich
unless
dude
field
gift
imagine
miles
Max
Ms
##id
low
stuck
calm
dying
surely
##I
##ey
interesting
unto
##ta
difference
holding
patient
Time
honor
hungry
##ng
address
army
huge
round
wine
##nce
Ma
THAT
Want
accept
blue
decision
sake
signs
surprise
figured
ladies
##age
##ent
Next
bastard
gives
owe
passed
punishment
Somebody
film
whose
##ke
Alex
Happy
Minister
beginning
enjoy
joke
plans
sad
##os
EU
hurry
idiot
picked
rules
##da
##led
Back
Check
helped
judge
teach
##ous
Indeed
Out
angry
tough
apart
bank
blame
deep
king
match
planet
promised
starting
##ro
arm
drunk
energy
horse
involved
liked
magic
third
art
crap
favorite
star
##at
Bring
Forget
became
service
worst
##ring
Lieutenant
Most
grow
##R
Dude
risk
sing
##ve
cry
destroy
eating
fish
jail
mention
French
board
walking
##to
Hell
driving
ourselves
pictures
seconds
turns
wrote
Five
James
Jimmy
bathroom
bear
beer
count
dreams
thou
##ur
rock
upset
ways
Chief
books
hoping
officer
drug
self
shoes
##les
Fire
Love
arrest
cross
sea
spot
##de
Doesn
Over
fit
heavens
knowledge
learned
##ging
Today
bus
choose
decide
hello
herself
price
enemy
fool
foot
helping
lt
memory
names
weapon
Turn
account
cute
gold
impossible
surprised
##v
Danny
Ray
Richard
deserve
hiding
sleeping
Holy
afternoon
bunch
putting
slow
track
##land
Show
dollars
lied
listening
local
press
quit
##ler
Agent
Detective
Jim
perhaps
stole
##C
drugs
file
itself
process
Harry
bomb
duty
hole
pleasure
suspect
tree
##ri
Uncle
client
conversation
drinking
fired
guilty
operation
church
final
locked
steal
##ger
##il
##me
##way
above
believed
computer
held
keeps
president
tea
Guys
interest
often
played
skin
twice
Aren
Before
allowed
begin
ha
laugh
nervous
rid
Nick
build
carry
dare
form
taste
##O
European
Red
absolutely
asshole
bother
earlier
escape
ok
path
pregnant
speaking
type
video
village
arms
breakfast
dirty
double
grab
hearts
kick
mate
nine
thousand
whoa
##men
Congratulations
Jane
Sarah
search
##P
Kosovo
gay
glass
innocent
shop
English
Mmm
following
lab
showed
weekend
40
green
seriously
##ish
##ner
24
Bill
Ha
consider
feed
feelings
further
gotten
jump
kitchen
leader
##ll
##un
Exactly
Hang
Sounds
crying
fuckin
hearing
hero
shirt
Alright
admit
clock
fat
park
responsible
willing
##1
##tor
25
Book
Four
Little
Tommy
bigger
ex
neither
obviously
quickly
thee
towards
##ism
Ready
acting
empty
followed
gas
goddamn
orders
reading
##5
##ure
Al
Boy
FBI
OF
bodies
complete
heaven
keys
losing
military
smoke
upstairs
##3
##6
Another
Son
awful
places
writing
##co
Except
None
Paris
Run
Were
action
lock
pressure
raise
teacher
weapons
wind
wondering
Colonel
continue
knowing
numbers
##L
Shall
Tony
agent
aware
bullshit
captain
checked
closed
records
serve
treat
yourselves
##ko
Better
Bob
Mark
arrived
experience
major
nose
notice
tells
walked
whoever
##K
##ally
##ped
Jake
bloody
closer
de
hi
issue
mercy
##der
Has
cost
due
fresh
immediately
shame
trial
warm
Absolutely
London
Until
access
advice
allow
medical
radio
summer
travel
##ged
##ions
18
Talk
agreed
balls
band
built
destroyed
flight
knife
push
sold
suit
##dy
Baby
command
study
written
Chris
Steve
fucked
greatest
guard
spoke
stage
##io
City
alright
burn
cat
code
common
guns
roll
size
thy
##4
##M
Guess
Six
animals
blind
bullet
hat
relax
##ir
Friday
daddy
excited
keeping
opportunity
pulled
usually
##7
Their
asleep
hanging
powerful
race
training
##8
##house
Fucking
master
stories
##ard
##out
brothers
expected
large
necessary
political
Enough
Master
Serbia
Trust
hadn
legs
neck
##ns
##sh
Ladies
apologize
heads
proof
tape
##ki
Billy
Find
Goodbye
Police
Probably
belong
grand
investigation
signal
sky
taught
##ee
##ned
##ze
16
Adam
DNA
German
desk
everywhere
ridiculous
strength
waste
Mommy
crew
suddenly
threw
##as
##ated
##ding
House
II
Turkey
United
create
leg
student
##ial
Stand
While
folks
lies
project
purpose
restaurant
trick
##by
##per
Besides
battle
chair
dropped
extra
raised
remain
river
suggest
tight
##do
##ier
Easy
Eddie
Mama
Seriously
Yo
brings
camp
chief
concerned
danger
heavy
island
##ad
Ask
Bobby
Daniel
Morning
Robert
beg
bottom
color
corner
dogs
pants
shows
smile
talks
view
##red
IN
Lady
awesome
discuss
emergency
general
nature
possibly
practice
truly
former
members
noticed
planning
shooting
simply
wild
##ible
##nd
dressed
insane
member
note
spirit
##ons
Jerry
Kill
Professor
White
driver
eh
grown
lay
letting
main
market
property
seek
##am
##im
##line
Unless
vote
##ious
##ming
##ps
Both
However
Sunday
ends
fake
faster
finding
guest
paying
photo
plenty
realized
seemed
sight
suicide
##hip
##ities
14
Johnny
Pretty
department
dumb
ideas
naked
rain
speed
surgery
Cut
Europe
South
States
based
began
belongs
bucks
credit
example
invited
murdered
outta
research
rule
starts
survive
target
##rt
Must
Tomorrow
World
bottle
breathe
failed
opened
opening
speech
sweetheart
##tic
13
animal
finger
football
forth
horrible
papers
rights
##ating
Know
caused
especially
harm
turning
##my
Jason
WE
beyond
bridge
bringing
career
easier
matters
natural
several
split
##9
According
HE
Lee
Roger
cars
comfortable
cousin
focus
pool
results
teeth
total
weak
Always
Martin
beach
bite
changes
covered
heading
leaves
ordered
stolen
##ut
Amy
Black
Kevin
Ryan
Street
cake
chicken
countries
famous
files
interview
official
onto
##ance
##ber
##no
500
Kate
ME
Monday
Things
according
dancing
ghost
heat
laughing
prefer
runs
uncle
##B
Believe
Same
WHAT
cases
flowers
lights
moon
older
recognize
roof
##lin
Ever
Scott
afford
community
enter
health
led
mark
prepared
pretend
reality
ruin
soldiers
students
##ED
03
breath
cup
ended
exist
jealous
loud
meat
ours
program
revealed
sending
site
##ized
Had
North
Surely
connection
cook
dry
faces
female
games
loss
original
received
returned
weight
##head
##ide
##lo
Anna
Charles
Old
Sergeant
Without
criminal
damage
opinion
social
##ize
17
Officer
San
arrested
familiar
nearly
pieces
safety
shower
##ina
Rachel
points
sees
##ss
##you
ON
bedroom
believers
breaking
cards
complicated
correct
deny
event
hidden
insurance
mail
monster
pal
per
permission
stayed
##ical
Calm
Long
Muhammad
Walter
condition
expecting
hurts
including
nation
north
planned
pray
super
sword
universe
##bs
##va
Dear
Life
US
angels
biggest
charges
cream
deeds
forgotten
fought
likely
reached
somehow
suffer
##ay
Andy
Aw
Doc
Eric
Santa
base
justice
release
reward
secrets
selling
silly
tickets
##ah
##li
Anyone
Luke
Relax
State
THIS
Up
babies
brave
draw
kicked
lines
male
ought
pack
painful
post
queen
science
soldier
wise
##wood
200
Claire
IS
Pete
Saturday
Shh
Thursday
assume
block
chest
fate
fellow
firm
lots
oil
prayer
recently
responsibility
wet
##ise
##up
##ya
Also
attacked
bro
dating
flying
grateful
headed
lately
letters
loose
remains
settle
statement
sweetie
##ver
bird
character
clearly
detective
devil
dick
doors
genius
hardly
issues
saving
spread
staff
tie
##em
Although
Brian
Chuck
Dan
NO
Pull
Tuesday
Yep
buried
ears
introduce
nowhere
page
regular
religion
screwed
slept
strike
##ham
##ni
##tte
April
Chinese
Emma
FOR
France
barely
chose
copy
falling
memories
offered
progress
ruined
sin
threat
##ol
04
05
East
KNOW
Security
War
answers
filled
forced
language
manager
milk
trees
value
##ds
##ot
##ue
Arthur
Party
Poor
ate
dealing
desire
fingers
hired
mama
movies
sooner
stars
term
toilet
##H
##eth
##ks
##ky
##mer
##ny
##tes
Brother
Down
Japanese
Sean
Ted
authority
bike
deliver
fan
hath
incredible
nuts
sexual
worship
##ings
##king
Prime
Send
Yet
drinks
garden
gentleman
journey
professional
protection
stone
suck
##ice
##ow
06
Ain
Larry
Moses
Russian
checking
disappeared
fill
lesson
lord
nurse
perfectly
photos
thoughts
trade
woods
##ls
##ning
Emily
Grace
Joey
Majesty
Queen
Us
besides
birth
crash
funeral
guidance
handsome
throat
ugly
unit
warn
##ries
##ual
##za
Dave
Wake
West
center
contract
freedom
legal
mountain
officers
patients
remind
scare
spell
theory
therein
##ak
Lisa
Louis
angel
burned
conference
details
gate
jacket
percent
period
pop
rooms
spring
streets
##ca
##ell
##ied
##py
##ving
Coming
England
Messenger
Nah
Plus
agreement
celebrate
freak
goin
grew
non
parking
parts
screaming
signed
thousands
tiny
##field
19
Carl
NOT
St
Ten
cares
doin
drove
guide
invite
mentioned
murderer
national
obvious
owner
player
showing
style
success
##om
##over
Commander
Nope
confused
curious
discovered
dust
eggs
image
pair
parties
presence
provide
south
van
violence
warning
wash
##down
##ha
##ins
##op
##rn
Apparently
Army
Bad
Clark
High
Honor
Major
RE
Tim
bill
buying
cast
claim
disease
effort
international
kinda
medicine
pocket
source
stealing
ticket
weather
##pe
Alice
Kim
Wednesday
becomes
brilliant
defense
families
forces
growing
ill
knock
lonely
otherwise
plant
released
wound
##ff
##her
##kin
##ron
##ster
Almost
Annie
Joseph
MY
Mum
Phil
Times
amount
apparently
co
hall
jerk
laid
mayor
##cy
##rd
##sy
Abby
DO
June
Thomas
William
affair
appear
avoid
cancer
chocolate
director
fixed
houses
liar
mood
subject
##cing
##ford
##rate
##ud
Again
Boss
Haven
Kyle
OH
appointment
beauty
bright
cheese
data
dies
gods
ocean
rate
reasons
stomach
storm
trap
watched
whore
##ip
##ists
##é
Aah
Cheers
National
Such
butt
harder
joined
nights
option
painting
pig
pissed
receive
regret
season
stronger
usual
##ite
##mi
##mo
##ran
##ters
##ties
Carter
Eat
Follow
Gentlemen
Seven
Turkish
Won
burning
coach
custody
downstairs
glasses
location
map
neighborhood
positive
pounds
righteous
secure
victims
60
Ed
Home
Ow
Papa
Park
Rome
WAS
Wouldn
aside
bones
borrow
enemies
expensive
finds
mankind
media
model
rise
warrant
witnesses
##G
##IN
##ors
Alan
Anybody
Prophet
birds
clients
committed
flat
partners
powers
revenge
surface
tied
understanding
verily
##ji
##ld
##ms
BiH
Close
Said
believes
bone
boring
bread
divorce
engine
escaped
fancy
fantastic
higher
humans
la
physical
pulling
technology
vision
##ER
##ga
##ments
Best
British
Maria
Tonight
Young
add
breathing
capable
doctors
grave
greater
ho
jobs
mountains
moves
noise
particular
pills
proper
rent
tour
younger
##back
##ess
##go
##ok
##ul
##ville
Chicago
Hope
Leo
Lucy
Many
Rose
Smith
century
false
goodbye
hire
meaning
miracle
plate
range
related
shock
shots
spy
tear
terms
wide
##ians
##time
Africa
Jenny
October
Simon
Susan
Thought
Whoever
ancient
ashamed
available
basically
bath
beating
crack
dig
easily
foreign
license
repeat
sat
ships
sudden
trace
treated
##ft
##ium
##med
ALL
Careful
Especially
Josh
Julie
Mexico
awake
border
considered
illegal
stood
vacation
##ball
##board
##ves
09
Drop
Greek
Might
Molly
Night
Otherwise
Seems
Use
bell
bleeding
carrying
coat
effect
picking
romantic
rush
sugar
virus
warned
writer
##ja
BE
DON
Forgive
Jackie
artist
audience
blew
cameras
dump
fortune
giant
hunt
motherfucker
paint
rat
sons
status
thief
traffic
##bly
##den
##ics
##lly
##ung
## 
300
Girl
HAVE
Real
Sheriff
Step
Verily
ability
anger
appears
aunt
babe
brains
campaign
competition
convince
excellent
fully
gang
goodness
leaders
lower
mum
recent
rough
schedule
shake
slowly
solve
tongue
touched
trusted
##F
##bo
Germany
JUST
bags
bride
changing
concern
cure
direction
farm
guests
horses
leads
meal
request
role
shape
sheriff
torment
wherever
##ction
##gan
##gs
##gy
##he
07
Ali
Aunt
Bruce
Either
Howard
Lily
Men
Previously
Sweet
Victor
accepted
advantage
curse
delivered
entered
exciting
fail
happiness
millions
pleased
plus
prepare
senior
therefore
whenever
winter
##ba
##res
##well
22
Dean
Hit
Matt
Nathan
Start
Truth
UN
cleaning
closet
crimes
crowd
equipment
fallen
hated
jury
leading
lift
online
poison
punch
result
route
singing
sisters
sucks
west
##bed
##ct
##lt
##tive
21
45
CIA
Doug
Jeff
Kelly
March
commit
connected
creature
current
depends
device
disappear
dozen
ear
forest
fruit
grade
grandmother
however
identity
knees
mystery
package
scary
smoking
soft
sometime
square
treatment
uniform
winning
wire
wives
woke
##ator
##oo
##ral
##ward
China
Each
Going
Kind
Maggie
Second
Washington
Whoo
attorney
circumstances
extremely
flow
healthy
honestly
laws
manage
pie
pure
reports
spare
suffering
understood
unusual
wealth
##ino
##its
##uring
Aye
Clear
Helen
Jackson
Quick
Shoot
Taylor
YOUR
airport
button
disbelievers
disgusting
earned
emotional
error
failure
flesh
guards
impressed
odd
rescue
screw
sexy
sins
society
steps
vampire
walls
##ans
##berg
##han
##izing
##right
##rk
##sing
Angela
Christian
Gary
Guy
Mine
November
becoming
darkness
exchange
garage
helps
hundreds
kinds
kissed
nightmare
piss
precious
priest
servants
similar
successful
trapped
trash
wishes
yellow
##ade
##be
##ened
##ified
##ric
##ship
08
Council
Jews
Marcus
Number
Ohh
Soon
Special
debt
gorgeous
minds
minister
mon
properly
smells
species
television
throwing
witch
##ile
##light
##ram
##sa
Betty
Blue
Chloe
Inspector
Jay
Jesse
Lucky
Pharaoh
Quite
Sara
Save
approach
carefully
cheap
crisis
desert
desperate
hook
joking
kingdom
mighty
mostly
offering
personally
plays
region
separate
series
shift
slave
soup
specific
tears
vehicle
victory
##work
CAN
Death
Drink
Jean
July
La
Rick
Sister
Unfortunately
Way
behavior
below
bless
distance
fourth
hunting
mistakes
nonsense
slip
solution
spoken
studying
tall
tax
toward
treasure
##ana
##que
##ug
August
Children
Dead
Finally
Gibbs
Green
Russia
SO
Spanish
Ugh
cab
carried
dollar
east
exact
magazine
material
moments
ordinary
panic
pushed
sale
stress
survived
tests
thrown
trigger
waited
wood
##ably
##j
##town
##zed
02
27
ARE
Americans
Department
Hank
Laura
Lois
Macedonia
Throw
armed
champagne
chosen
clever
defend
deserves
economic
entirely
forgiveness
function
incident
loan
managed
popular
potential
rare
remove
reputation
riding
score
served
stake
stock
talent
text
yard
##che
##ker
##kes
##shi
##ti
##wa
Abraham
Answer
Been
Being
Club
Coach
Getting
January
Julia
Kids
MAN
Noah
THERE
Vegas
actual
billion
candy
counting
drag
edge
eventually
gain
literally
lover
mile
movement
pardon
pizza
policy
reported
rocks
rude
screen
shoulder
silence
swim
title
toast
##ants
##nts
##ris
##ten
23
Gotta
Hitler
LIKE
Looking
Los
Mac
Merciful
Satan
September
True
Water
Women
abandoned
brand
chances
chasing
detail
directly
equal
expert
gathered
grant
guarantee
holiday
hung
joint
lake
mass
mixed
refuse
skills
stands
staring
switch
transfer
##ON
##our
##pers
01
80
Cool
December
Prince
Quiet
Tyler
alert
benefit
blowing
blown
burden
challenge
convinced
degree
demon
denied
election
er
facts
hates
intelligence
judgment
messages
monkey
passing
pee
princess
religious
section
sides
trained
unbelievers
##ery
##nie
##ub
##ute
##´s
Aaron
Amanda
Goddamn
Ho
India
Jo
Madam
Mind
Morgan
Neither
OUT
Patrick
Set
activity
agents
alarm
argue
arrive
astray
bound
bust
chain
creatures
cutting
deaf
decent
goal
grandfather
launch
lips
obey
pen
pride
task
tip
wasting
##ain
##and
##di
##ered
##lies
##tle
##tt
##ula
##zy
Air
Albania
BUT
Dylan
Fred
Greece
Jordan
Karen
Later
added
attacks
cells
charity
couch
cow
demand
increase
kills
loving
marks
mental
performance
pot
setting
stopping
systems
teaching
workers
yo
##ag
##ded
##dge
##ition
##lan
##nk
##off
##ular
Anne
Barry
Brown
Marie
Miami
Read
Ross
Star
Texas
adult
authorities
bored
cigarette
delicious
facility
factory
granted
hug
insist
load
object
row
shoe
silver
tail
useless
wolf
wow
##U
##ast
##tch
Enjoy
ID
Jones
Shawn
Stan
Woman
ah
alcohol
appointed
badly
cooking
downtown
favour
fella
fever
fuel
juice
latest
modern
nasty
network
pathetic
perform
placed
sacrifice
sentence
spending
therapy
tracking
trail
useful
##bling
##hood
##one
##zing
Catherine
Central
Certainly
Copy
Excellent
Instead
Jacob
Jess
Lots
Name
Van
background
coincidence
ending
euros
friendship
highly
hurting
loser
measure
officials
opposite
pity
plain
prime
prints
removed
shown
solid
uncomfortable
walks
zero
##ily
##more
##oe
90
Bishop
Bulgaria
California
Croatia
Derek
Diane
Elizabeth
Feel
Grandma
Jewish
Lo
Madame
Robin
School
Serbian
Year
accused
actor
ambulance
conditions
confirmed
courage
creation
elevator
events
intend
mask
motion
officially
pilot
politics
prevent
prisoner
recall
replace
sample
someplace
suffered
swing
tank
terribly
touching
violent
##V
##bi
##ini
##let
##lla
##ology
##ore
##ress
##row
##tors
##uck
Ellen
Eve
GET
Grab
Hannah
Honestly
Indian
Monsieur
Montenegro
Pop
Wanna
anti
assault
assistant
chick
childhood
cleared
climb
clue
dawn
disbelieve
district
earn
exposed
gym
handed
joy
mirror
mommy
quality
response
rings
rope
sandwich
sensitive
sharp
shopping
sports
stairs
thin
trauma
wallet
##X
##ae
##ire
Andrew
Angeles
Belgrade
Couldn
Grandpa
Greg
Harvey
Having
Jessica
Katie
Linda
Oliver
Pick
Vince
Wise
Work
bastards
brown
core
culture
direct
dumped
education
existence
extraordinary
fishing
grace
hers
library
midnight
nuclear
professor
settled
severe
skull
snow
souls
suspicious
threatened
underneath
##ering
##nder
##ov
##ple
Chuckles
Cooper
Dennis
Eh
Frankie
HERE
Imagine
Italian
Merry
Peace
Romania
Under
aboard
basement
daily
designed
doll
drama
fellas
footage
frozen
generous
glory
ignore
metal
notes
prisoners
provided
puts
quarter
random
somethin
zone
##cks
##day
##sha
##ved
##vin
AT
Bank
Dick
Grand
Johnson
Princess
Sally
Sighs
Twenty
WELL
Wayne
angle
attitude
bars
begins
behalf
budget
circle
closing
cock
confession
eaten
exit
fed
financial
forbidden
heal
holy
host
learning
mix
murders
newspaper
protected
protecting
pushing
reaction
required
scientist
sends
troops
##ai
##ations
##book
##ces
##dle
##ig
##ised
##ney
##room
##tions
26
35
Casey
Done
El
Elena
Gonna
Head
Hot
Marty
Mayor
Obviously
Oscar
Rebecca
Room
Speaking
Sun
Union
University
Vincent
WITH
Whose
backs
bail
bat
believing
bills
bullets
chat
cheating
concerning
confess
digging
divorced
engaged
established
fathers
flower
garbage
golf
impression
impressive
locker
outfit
practically
prayers
pussy
reporter
review
robbery
supply
teams
terrorist
throughout
trunk
##IE
##ius
##ren
##ria
##rin
Beautiful
Bible
Carrie
Director
Guard
Hands
Hereafter
Ian
Internet
Kiss
Off
Super
Wasn
Wendy
Williams
agency
although
answered
article
associate
assure
chase
civil
collect
destiny
disappointed
disaster
freaking
guided
homes
hopes
humanity
messed
neighbors
parent
patience
pound
scale
songs
squad
studio
testimony
unable
wheel
wisdom
##IS
##ane
##ence
##ets
##ify
##ration
##ret
##sen
##uff
##val
Boston
Church
February
Miles
Pardon
Penny
Play
Roman
Says
Score
Senator
Sophie
Wilson
advance
alien
argument
awkward
belt
blast
boxes
breaks
cave
comfort
commander
cookies
crossed
development
embarrassing
estate
federal
friendly
invented
maid
particularly
piano
pile
refused
resist
resources
secretary
serial
sharing
silent
struggle
transport
units
wanting
wasted
winner
##chi
##des
##ek
##ita
##lon
##ong
##side
##the
Amen
Audrey
Cole
Its
Lovely
NOW
Ron
Trying
UP
afterwards
attempt
backup
busted
cabin
cancel
decisions
defeat
dirt
efforts
egg
falls
hitting
kidnapped
lack
lets
options
print
prize
pro
searching
seats
session
smooth
speaks
suits
surrender
suspects
territory
tested
tower
university
unknown
wave
##cies
##ick
##lf
##lle
##od
28
Boys
Caroline
Charlotte
Davis
GO
Germans
Half
International
Japan
Malcolm
Martha
NATO
Norman
Rob
Roy
Slow
basis
betrayed
blessed
choices
companies
complex
contest
deck
degrees
destruction
determined
drawing
embarrassed
experiment
explanation
gather
gifts
guitar
honour
imagined
iron
listened
previous
rejected
scream
stops
struck
temperature
theater
tries
underground
valuable
wore
yell
##ang
##boy
##coming
##ica
##ory
##ose
##port
##ugh
ABOUT
Bravo
Duke
Er
Found
Free
Funny
Glad
Judge
Justin
Knowing
Laughs
Marshall
Money
Monica
Paradise
Spain
Thus
active
acts
aid
answering
asks
attractive
boots
cage
ceremony
cigarettes
citizens
confidence
escort
hid
homework
motive
palace
pattern
pin
punish
replaced
servant
services
smaller
stranger
surveillance
torn
tracks
unjust
version
washed
windows
##au
##een
##ising
##istic
##rge
Albert
Bart
Blake
Brad
Count
Darling
Eight
Face
Girls
Makes
Meet
Mister
News
Parker
SHE
Stupid
Sue
Though
Walk
Whether
apology
appropriate
average
barn
bury
castle
causing
concert
cos
costs
county
daughters
describe
developed
driven
elections
entrance
fantasy
forms
frightened
generation
groups
headache
interests
jumped
levels
manifest
negative
occurred
penis
production
script
shadow
shy
torture
wing
##ap
##ass
##gen
##ification
##ill
##lar
##logy
##rian
##ulate
400
Angel
Donna
Francisco
Hard
Island
Israel
Jamie
Jennifer
Lewis
Louise
Maya
Miller
Need
actions
attend
balance
beast
bow
clown
cried
crush
debate
design
desires
drew
effective
extreme
fence
guts
hits
holds
impact
intense
loyal
merely
mister
neighbor
nerve
phones
possibility
rivers
scientists
seal
shared
states
stays
strategy
theirs
thus
uses
wipe
##J
##LY
##hi
##illa
##lia
##lie
##mic
##sis
##teen
150
48
Blood
Change
Court
Edward
Kenny
Music
ONE
Other
RIGHT
Road
Secretary
Terry
affairs
alley
anniversary
appeared
arranged
basic
beloved
butter
chip
conscience
construction
cruel
delivery
fairy
flag
goods
grief
include
lawyers
math
mobile
mustn
nail
noble
obsessed
packed
passion
praise
pre
pretending
prick
rape
relations
remembered
satellite
slap
talkin
telephone
tool
twenty
undercover
whatsoever
wounds
##ES
##NT
##SS
##bar
##cho
##ci
##cs
##load
##low
##ock
##rey
##und
70
911
Ahh
Albanian
Beth
Heather
Isaac
Kid
Leslie
Margaret
Megan
Mickey
Mitchell
Riley
Southeast
Stanley
Walker
Walt
Word
Wrong
bang
bull
capital
classes
consequences
entry
flash
foolish
grandma
hill
identify
jungle
knocked
landing
loaded
marrying
miserable
pays
pet
scan
sec
selfish
swimming
toy
tradition
turkey
unfortunate
ups
##ac
##ave
##ette
##gle
##nge
##ray
##read
##rm
##sion
##sm
##uh
##ui
##ures
Ann
Attention
Break
Drive
Family
Freeze
Hand
Hear
Jen
Liam
Michelle
Natalie
Olivia
Quickly
Shouldn
Team
Thou
Tina
Turns
Zoe
blocks
bounty
chuckles
claims
com
coma
complain
criminals
dated
ease
effects
facing
golden
gosh
helpful
hoped
injuries
instance
instructions
investigating
kicking
lf
link
manner
nephew
opens
port
procedure
product
respond
routine
scratch
slaves
sounded
thirsty
timing
tone
##IT
##RY
##ep
##gh
##heads
##ines
##lock
##pt
##rick
29
AFP
Barbara
Buy
Clara
Crazy
Definitely
During
Federation
Hill
Italy
Messengers
Nate
Nora
ad
analysis
areas
badge
basketball
begging
bug
candidate
channel
chastisement
customer
dealer
differently
exercise
fighter
homicide
incredibly
influence
leak
lessons
limits
located
lookin
madam
nut
psychic
recommend
robbed
sealed
serving
snake
surgeon
sweat
talented
tools
tunnel
##CE
##als
##ates
##bing
##cent
##dies
##ents
##jo
##lation
##ois
##pa
##rated
##sed
##use
##vo
Allison
Carlos
Clay
Hall
Korea
League
Nine
Promise
Shane
Spencer
Therefore
Toby
baseball
beaten
captured
cent
cheated
cleaned
clinic
collection
communications
considering
costume
damaged
documents
engagement
exam
faithful
fights
films
ghosts
imagination
increased
industry
informed
injured
intention
legend
losers
monsters
nothin
odds
offense
pages
pink
players
privacy
profile
punished
realise
recording
revelations
salt
san
sand
schools
seeking
shelter
sink
structure
sufficient
surrounded
taxi
teachers
worthy
wounded
##LE
##ale
##born
##fe
##gie
##ional
##ited
##ncy
##ree
##rry
##tal
Car
Command
Dark
Gordon
Hollywood
Jonathan
Junior
Justice
Kitty
Lincoln
Meredith
Navy
Pass
Russians
Speak
Till
Travis
accounts
announced
bears
bothering
clouds
conduct
connect
folk
gathering
grass
gross
guessing
guilt
holes
individual
injury
interrupt
invitation
jokes
ls
majority
medication
messing
mothers
multiple
owned
proposal
reasonable
relief
require
returning
rice
robot
sales
solar
spirits
stable
standard
survival
suspected
threatening
transferred
twins
union
wicked
yelling
##AL
##IGHT
##ars
##ban
##bility
##fer
##ight
##ito
##og
##ome
##tin
##vation
##vi
##vic
##vy
2007
Carol
Castle
County
Francis
Gus
HOW
Homer
Left
Lucas
Nancy
Russell
Stephen
Surprise
Yesterday
admire
award
beneath
cart
comment
concerns
coward
customers
diamond
drawn
drowned
exhausted
exists
explained
firing
generations
gettin
highest
idiots
insult
lightning
lion
liver
noon
orange
paperwork
pipe
pleasant
possession
prince
punk
purse
relatives
residence
sets
sneak
someday
spiritual
strangers
stubborn
temple
testify
throne
troubles
warrior
weakness
wears
worlds
worries
##OR
##W
##ced
##dale
##fully
##ik
##ison
##lands
##mie
##of
##point
##ura
Bosnia
Couple
Damon
Dawson
Earl
Fight
Harris
Hm
Jeremy
Julian
Nor
Original
Owen
Quran
SAW
Seth
Tae
Through
Took
YEAH
attached
bitches
bombs
cats
chamber
charged
content
council
creepy
critical
currently
discover
dragged
dropping
explosion
fans
fraud
gear
lame
landed
laundry
league
loyalty
mall
meetings
mm
negotiations
opposition
paradise
personnel
rats
reckon
reform
ringing
rip
sauce
sport
spotted
stabbed
stones
succeed
suggesting
various
vessel
virgin
visiting
web
worker
yöu
##00
##ative
##cher
##els
##fire
##ib
##ix
##kins
##nes
##ried
##sive
##wn
##worth
2004
Alpha
Awesome
Bay
Between
Carla
Christopher
Coffee
Connor
End
Ethan
Eva
Force
Foreign
Forgiving
GOT
Gabriel
Han
Harold
Jill
Liz
Lou
Moon
Office
Resurrection
Summer
THEY
Tracy
accession
actress
adventure
arguing
arrange
banks
blade
bowl
catching
central
charm
chill
deeply
demons
despite
diamonds
doers
dope
enjoyed
entering
feeding
figures
flew
frame
funds
gray
immediate
infected
lap
lifetime
mistaken
operate
payment
plants
population
produce
psycho
published
raped
recorded
requires
singer
slipped
tent
terrific
tune
visitors
voices
wings
##ID
##ST
##ara
##away
##craft
##ez
##ient
##rating
##shed
##tical
##ught
##ury
##yn
##zo
African
Barney
Blair
Booth
Buddy
Bullshit
Cold
Cos
Cup
Dinner
Friends
HER
Ken
Leonard
Logan
Meg
Neil
Order
Randy
Screw
Stuart
Todd
Understand
Virginia
backwards
beings
blessing
cargo
causes
commitment
committee
conflict
description
deserved
draft
drives
enjoying
explains
heroes
hunter
mr
muscle
nations
nearby
objects
occasion
policeman
porn
pour
profit
rage
reject
ripped
roads
sergeant
shed
shell
shine
skip
soda
spider
thick
tragedy
unbelievable
unfortunately
wins
##TA
##bby
##bia
##bie
##eg
##ei
##ho
##hy
##igh
##mate
##mp
##nia
##ole
##pot
##sk
##stic
##yle
2000
2003
2005
Afghanistan
Croatian
Fox
Full
Gold
Joan
Kirk
Macedonian
Mason
Meanwhile
Mighty
Monk
Nay
Pam
Power
Ralph
Sea
Stick
Third
Told
Whenever
adorable
ages
al
album
bee
beside
blah
borrowed
capture
centre
cents
chemical
chips
claimed
commercial
communicate
confirm
continued
corruption
damned
dates
deeper
division
drops
empire
employees
fashion
fifth
handling
happier
hostage
inch
mistress
motor
needle
niece
normally
organization
painted
penny
plot
powder
presents
promises
propose
prosecutor
reminds
reporting
returns
safely
scheduled
shh
sighs
significant
sober
tap
traitor
traveling
tube
wrap
youth
##ake
##bit
##cular
##dor
##eal
##fy
##hold
##ically
##ils
##ization
##late
##law
##lu
##mit
##ona
##rator
##uting
32
Bell
Breathe
Brooklyn
Commission
Eli
Ellie
Elvis
Enterprise
Ford
HIM
Jump
Lance
Light
Lost
Middle
Murphy
PHP
Perfect
Pope
Rich
Ronnie
Somehow
Stefan
Totally
Watson
Western
absolute
achieve
admitted
adopted
apply
assumed
begun
belly
betray
blows
booth
breasts
cared
characters
charming
cocaine
concentrate
confident
delay
determine
display
environment
etc
experienced
formula
freeze
galaxy
governor
gum
heck
images
invisible
kidney
kissing
lend
limited
lousy
management
meantime
monitor
operations
oxygen
packing
parliament
priority
ray
recover
refuge
sheep
software
storage
string
tale
tastes
tattoo
tips
vampires
verses
wondered
wrapped
##ability
##berry
##gar
##ght
##hing
##isation
##lap
##mann
##ou
##rine
##uke
##ution
##uts
Allow
Amazing
Bailey
Bo
Chase
Company
Faith
Hotel
IF
LL
McGee
Mexican
Much
Mulder
Rock
Straight
Sydney
Teddy
Understood
VE
Victoria
WANT
abandon
affect
amongst
application
assignment
bait
battery
consciousness
contacted
cracked
destroying
diet
drill
electricity
emotions
employee
flies
halfway
heroin
intended
investment
joining
junk
lad
laughs
lecture
limit
liquor
measures
moron
museum
necessarily
owns
peaceful
plastic
producer
rank
recompense
requested
rising
rose
sacred
seized
shadows
soap
solved
stepped
suggested
superior
truthful
tub
whosoever
##AT
##GE
##ION
##RS
##box
##cle
##del
##die
##ection
##eer
##ens
##gus
##ining
##lay
##lot
##place
##una
##ural
##we
##ye
##ys
Bear
Berlin
COME
Canada
Cross
Deal
Far
Finish
Florida
Government
Group
Harvard
Highness
History
Holly
Inside
Irish
Lane
Lot
Made
Muslim
Nina
OKAY
Place
Private
Small
absurd
acid
alibi
alike
announce
beef
behave
booze
burst
cabinet
champion
chaos
cities
complaining
covering
dancer
described
drank
dreaming
drown
fascinating
filthy
forgetting
gambling
gardens
identified
independent
introduced
investigate
jet
knee
laptop
madness
messenger
minimum
minor
ooh
operating
passport
photograph
pillow
pit
pockets
positions
prom
rabbit
roommate
royal
salad
sector
shaking
snap
standards
starving
stressed
strip
studied
supplies
temporary
tend
therapist
ties
unique
##IC
##ach
##ail
##bag
##ening
##ett
##fied
##gal
##ished
##key
##mous
##nic
##ord
##rim
##ru
##tan
##tie
##tz
##ush
##zi
2006
Already
Beckett
Catholic
Finn
Fish
Herzegovina
Jin
Jules
Kent
Kurt
Latin
Magic
Marvin
Mitch
Nelson
Part
Raymond
Reverend
Rory
Samantha
Sleep
Song
Strange
Thanksgiving
addition
announcement
anxious
bay
bid
blocked
broad
brush
cheat
confessed
counter
crossing
crown
cursed
database
develop
discussed
document
duck
fires
fund
furniture
grandpa
grieve
guardian
helicopter
homeless
hoo
independence
intel
junior
lads
laughed
lunatic
magical
massive
messengers
musical
novel
oath
perimeter
permanent
personality
pigs
province
ransom
reforms
regarding
relationships
resting
rolling
scar
shocked
shout
shuttle
soil
spin
steel
submit
symbol
symptoms
traditional
ultimate
##EN
##IVE
##TV
##ats
##bra
##burg
##cker
##cus
##ena
##father
##hed
##mon
##otic
##ras
##ride
##rit
##ulation
##van
Anderson
Ashley
Athens
Australia
Bitch
Bulgarian
Cat
Democratic
Dragon
Elliot
Fair
Faster
Food
Ghost
Iraq
Jeez
Jersey
Knock
Live
Mi
Ministry
Qur
River
Ruth
Service
Silence
Sofia
Spirit
Top
Winston
Wonderful
acted
advanced
apologies
apple
booked
bottles
brief
civilians
classic
comin
compared
corpse
cowboy
crystal
da
delicate
depressed
eats
establish
fields
fits
fucker
gloves
humor
indicate
jack
jam
lieutenant
lungs
meets
mid
minded
organs
parked
pulse
questioning
represent
reveal
rotten
ruling
separated
slide
smash
socks
steady
stroke
tech
tennis
tribe
vault
wills
##TER
##ari
##ern
##eur
##fall
##ges
##iff
##ime
##iting
##ku
##lam
##lic
##maker
##nal
##oke
##ony
##outs
##ox
##rant
##rina
##table
##tate
##tation
##tine
##tter
##ua
##uss
##ven
##ying
2008
99
Adaptation
Bastard
Behind
Benny
Cameron
Clyde
Colin
Deb
Deputy
Devil
Fat
Grant
Hong
Hospital
Laughing
Lawrence
Living
Lock
Matthew
Philip
Phoebe
Stone
Thirty
UH
Vic
WHO
abide
abroad
accent
aliens
approaching
approve
arrogant
arse
auction
bargain
beers
blessings
campus
circus
con
conspiracy
constantly
counts
demands
drawer
dreamed
electric
expose
fifty
fixing
focused
followers
gig
habit
heels
holidays
hop
illness
improve
inspired
internal
jewelry
kit
knocking
lands
links
maintain
matches
moral
motel
necklace
overnight
passage
passes
penalty
perspective
pitch
plug
poisoned
possess
practicing
raising
react
reminder
repair
replacement
revolution
rounds
satisfied
sites
strikes
suggests
sweep
switched
threaten
underwear
unhappy
urgent
vain
visited
visual
warner
waves
wished
yards
##IA
##INE
##OW
##TING
##TS
##bel
##bles
##cha
##ender
##gi
##gram
##itor
##ked
##olo
##oth
##rah
##set
##stone
##tis
##ust
##vity
31
Allen
Anthony
Bureau
Catch
Christians
Claus
Dale
Dog
Fear
Fort
GOING
Gardens
Grey
Holmes
Hunter
Idiot
Keith
Lake
Lay
Lemon
Nazi
Paula
Pay
Radio
Reuters
Royal
Sex
Somewhere
Soviet
Spock
Sweetie
Taking
Troy
Unto
Valentine
Valley
WILL
Wade
Wyatt
annual
anytime
attempted
belief
bitter
blaming
blonde
boom
bore
bothered
chicks
coast
colonel
cooked
corporate
declared
dessert
discussion
dr
dragon
dressing
editor
electrical
expression
forbid
freezing
gates
goat
hm
kitty
labor
largest
massage
mysterious
naturally
net
phase
pointed
politicians
quarters
retreat
searched
shortly
slut
sources
spit
stinks
suite
testing
thereof
thirty
tire
tracked
tricks
twin
unfair
unlike
waitress
warehouse
wars
wheels
worrying
zoo
##AR
##Z
##ack
##aries
##aring
##bbs
##con
##don
##ect
##ees
##ex
##gers
##hu
##iable
##iary
##icle
##inger
##itive
##just
##lick
##mark
##rable
##rch
##rts
##rum
##ski
##vis
##wan
##win
##yer
Admiral
Adrian
Alexander
Alicia
Alone
Babe
Bonnie
Burns
Cover
Craig
District
Double
Douglas
Dutch
Dwight
Lana
Li
Morris
Muslims
Point
Republic
Rita
Saint
Scully
Signs
Sullivan
Together
Wh
Woo
abuse
basket
begged
bench
benefits
burns
burnt
candles
capacity
cattle
chapter
checks
cheer
coke
congratulations
coordinates
creating
deaths
declare
discussing
dispute
elected
elephant
eternal
fairly
frankly
frequency
fried
gentle
global
grows
includes
judges
kidnapping
killers
lawful
lit
log
meters
mutual
naughty
photographs
poker
privilege
proceed
reaching
receiving
recognise
remote
reverse
rifle
risks
sheet
shirts
shooter
smiling
somewhat
technically
terror
theft
tons
treating
types
unconscious
upper
vulnerable
website
##BLE
##IND
##ONE
##ab
##ama
##cked
##ert
##fish
##iers
##iss
##itation
##lines
##lity
##ller
##lli
##lm
##lyn
##mia
##nan
##oon
##rand
##rew
##roll
##une
##unk
##unt
##uo
##view
##zzy
15th
36
800
Christine
Code
College
Commissioner
De
Debbie
Door
Eastern
Egypt
Evan
GOOD
Heh
Ice
Islam
Karl
Making
Moscow
Negative
Piper
Prepare
Quinn
Ricky
Sign
Solomon
Starfleet
Working
arts
assholes
assuming
autopsy
beam
belonged
blanket
bout
canceled
climate
clubs
commanded
computers
concept
contrary
creative
deed
defeated
deputy
discovery
drain
dull
eliminate
express
finest
follows
fools
fridge
gravity
hallway
hammer
hatred
headquarters
helmet
hunger
il
inform
kindness
machines
maximum
method
mouse
observe
owed
patrol
potato
protocol
quietly
radar
recovered
retired
revelation
risky
ritual
screwing
settlement
slight
sorts
studies
stuffed
sue
swore
tapes
tits
tryin
vice
vital
vodka
whiskey
winds
##CH
##act
##ald
##can
##eon
##itude
##ivity
##lis
##nel
##pel
##ph
##po
##rent
##rie
##ser
##tein
##tra
##tti
##ube
##uk
##uous
##vert
##ware
##ways
2001
33
37
75
AII
AP
Angie
Baker
Bernard
Bridge
Business
Cal
Caleb
Chang
Division
Golden
HIS
Harrison
Heard
Heart
Into
Jew
Joel
Juliet
Kong
Le
Lena
Lloyd
Marco
Melanie
Miranda
Nicky
OR
Report
Search
Smart
Social
TIME
Vanessa
Within
Yours
Zero
advise
annoying
appetite
approval
arrival
asses
assist
assured
bleed
ceiling
centuries
closely
clothing
cloud
colleagues
combination
completed
cooperate
creates
dealt
diary
dramatic
dummy
everyday
exclusive
execution
favors
fears
fingerprints
formed
grounds
handled
heed
height
helper
highway
honeymoon
infection
initial
inner
liking
lobby
locate
logic
marked
misery
mortal
mud
nigger
offers
panel
patch
permit
presentation
proven
purchase
quote
recognized
rehab
relieved
reporters
safer
samples
sheets
shoulders
slightly
spots
statue
stiff
subway
suitcase
swallow
terrified
theatre
tidings
tissue
toss
toys
tumor
un
upside
ward
##AN
##IR
##SE
##ady
##asing
##cer
##cious
##dia
##ev
##ever
##gin
##hole
##iness
##lee
##nte
##nut
##pin
##quet
##rest
##rity
##rse
##under
##wards
47
600
Act
Alison
Antonio
Atlantic
Attorney
Beach
Boris
Clean
Crane
Daisy
Dana
Dawn
Denise
Doing
Evil
Fantastic
Intelligence
Ivan
Juan
Lower
Lt
Marge
Mars
Mia
Mount
Phillip
Phone
Pierre
Poirot
Quit
SOME
Sammy
Secret
Starting
Station
Tough
Turner
Veronica
Xena
Yay
Zack
anonymous
approved
atmosphere
auto
beans
cap
chef
closest
coffin
collar
combat
communication
compound
contain
continues
copies
corn
cycle
deadly
defence
depression
dime
disgrace
domestic
economy
enormous
episode
ethnic
existed
falsehood
fashioned
favourite
forgiving
freaked
grip
growth
healing
heavily
hills
hip
hockey
horn
ignored
impress
inviting
launched
luggage
magazines
manners
methods
mouths
naught
paranoid
pill
planted
plates
preparing
prescription
prior
proved
puppy
pursue
races
recovery
rely
resistance
ribs
rumors
sack
salary
scientific
scum
signature
sits
sneaking
spoil
stations
steak
stretch
strings
supper
tag
theme
thieves
tooth
towel
traces
zombie
##HS
##ICE
##bal
##cat
##cia
##iles
##ington
##ira
##lary
##las
##lent
##lls
##logist
##lum
##minated
##mine
##net
##nis
##och
##ories
##pi
##tar
##tel
##ther
##tty
##ually
##ux
##zer
2009
250
2nd
42
65
700
Agency
Almighty
Ambassador
Art
Asia
Brothers
Buck
Center
Consider
Control
DJ
Date
Diana
Diego
Evening
Freddie
Garcia
Gloria
Graham
Harper
Hector
Interesting
Istanbul
Knower
Lauren
Manhattan
Monroe
Mountain
Nicole
Outside
Paige
Palace
Palmer
Parliament
Price
Pristina
Regina
Romeo
Schmidt
Science
Seeing
Serb
Silver
Suddenly
Talking
WHERE
Willie
Zach
approximately
assistance
attacking
bees
bent
boarding
boats
breast
bribe
bucket
celebrating
chased
chop
classified
coin
colors
colour
comic
compete
corrected
corridor
corrupt
counted
crashed
dentist
devoted
dial
directions
dish
dishes
distant
distracted
ditch
dough
en
engage
flu
grabbed
grain
grid
hostages
humble
ideal
inches
insisted
institutions
integrity
intelligent
items
ladder
length
monsieur
native
oven
phrase
planets
possessed
potatoes
praying
prey
proposed
prostrate
provision
ranch
rebels
reception
recite
regard
remained
remarkable
reminded
rolled
root
secretly
senses
shark
shove
smarter
sought
specifically
sticking
submitted
sucked
taxes
toes
tore
twelve
update
votes
wagon
washing
whistle
worn
##AD
##ET
##ND
##ada
##ano
##bon
##ched
##ckle
##eat
##ement
##etic
##gate
##gation
##gue
##ibility
##ink
##ior
##ives
##lain
##life
##list
##mission
##mond
##nding
##ove
##pper
##pping
##pted
##q
##rade
##run
##sic
##theless
##tus
##worthy
2002
2011
BACK
Believers
Benjamin
Blow
Bud
Buffy
Care
Chandler
Clearly
Dallas
Duck
Duncan
Emperor
Federal
Franklin
Gee
Gun
HEY
Halloween
Hanna
Heaven
Hour
Human
Jung
Korean
LOOK
Law
Mummy
Ned
Nikki
Nurse
Pat
Porter
Press
Push
Reid
Rosa
SEE
Sandy
Sid
Steven
Sugar
Superman
Tara
Used
Wall
Willy
Winter
Wolf
Yang
accusing
affected
aim
appeal
appearance
assigned
bacon
buildings
bum
cease
coal
compromised
confusion
convicted
cookie
cuts
daylight
decades
defendant
discharge
dreadful
elsewhere
encounter
experts
faced
farmer
flame
grandson
hooked
hopefully
household
included
internet
item
kindly
kings
lane
makeup
membership
nap
narrow
nurses
occur
outer
password
photographer
physics
pistol
planes
programme
promotion
rear
recipe
reflect
rented
repent
resident
rot
rubber
shipment
sixth
skill
slice
spreading
squeeze
sucker
suggestion
surprises
sync
technical
temper
terrifying
thankful
tiger
trading
traveled
tricky
values
variety
##TE
##UE
##af
##atic
##bury
##cake
##cture
##dling
##ear
##eral
##ffy
##form
##girl
##gling
##hs
##iest
##ipe
##iz
##lating
##lor
##lton
##mar
##met
##nies
##nne
##orn
##ovic
##rial
##ros
##rove
##rown
##rus
##tain
##tered
##tering
##ump
##ured
##vie
##world
AM
Academy
Around
Beverly
Boyd
Britain
Caesar
Case
Curtis
Dirty
Jeffrey
Joy
Kennedy
Killing
Lex
Lindsay
Melissa
Mikey
Naomi
Nicholas
Reggie
Romanian
Sandra
Saw
Scripture
Serbs
THINK
Universe
Weird
Wha
accomplished
activities
adding
additional
allies
allows
apostle
apples
arrangement
aye
bachelor
bits
bonus
breach
buck
bud
cable
cellar
certificate
collapsed
complaint
controls
convenient
crucial
cunt
decides
dedicated
defending
delighted
depend
destination
diner
disagree
disbelieved
disturbing
doubts
ed
enforcement
engineer
ensure
examine
explaining
festival
filed
filling
fulfill
gained
gallery
genetic
grades
guides
gut
hooker
hunters
intact
larger
laying
legacy
lung
maker
medium
menu
misunderstanding
mole
motherfuckers
nails
needing
nest
northern
numerous
oldest
organised
paintings
pale
perfume
poet
poetry
portion
products
profession
pump
quoted
radius
reads
registered
relative
repay
restore
retire
rushed
sakes
sandwiches
scheme
secured
seed
shitty
signing
silk
sleeps
slightest
smashed
sniper
sperm
sticks
stink
sunshine
tense
theories
thereby
thumb
transmission
vanished
vast
vicious
visible
volunteer
willed
wolves
worthless
##FF
##INA
##ONG
##TH
##US
##ace
##ao
##ash
##bbing
##bell
##bies
##bor
##cation
##chen
##date
##din
##ea
##ently
##erated
##graph
##ias
##ience
##iki
##ject
##lim
##minate
##mother
##nda
##rative
##rgo
##rid
##rrow
##ses
##sia
##so
##ste
##tance
##tro
##vable
##ws
##xy
##´t
3rd
44
AN
Andre
Artie
Asshole
Association
Austin
Avenue
Bang
Burke
Cindy
Cody
Committee
Data
Despite
Dorothy
Drew
Ew
Facebook
Fifty
Gabrielle
Gimme
Gone
Gosh
Gotcha
Janet
Join
Joon
Kara
Khan
Kramer
LET
Marina
Miguel
Murray
Pa
Pleasure
Poland
Randall
Repeat
Ruby
SETimes
Sebastian
Sherman
Strong
Teal
WHEN
Write
Ya
Yup
actors
agenda
alliance
arena
artists
assassination
awfully
beds
boobs
branch
broadcast
buddies
bump
chairs
citizen
comedy
commission
confirmation
courtroom
covenant
covers
deer
demanding
developing
dismissed
divine
doom
dudes
educated
efficient
elements
email
entertainment
excitement
exhibition
fabulous
fold
gunshot
harsh
hats
hears
http
kin
label
laser
legally
lesbian
lo
loses
march
meaningless
medal
mere
minus
models
offended
originally
orphan
overcome
persons
poem
presented
racing
rarely
reference
reservation
rub
rumor
satisfaction
scandal
scholarship
seize
server
shares
shore
smelled
stare
sub
sweater
terrorists
thoughtful
tops
twist
typical
valley
versus
wealthy
whip
witches
witnessed
wrist
##IP
##VE
##ads
##aking
##ament
##amp
##case
##cision
##cott
##ese
##ew
##hem
##ids
##ility
##int
##ister
##ital
##itt
##lier
##liest
##lint
##mal
##matic
##mb
##ngo
##ort
##ots
##pace
##pect
##rap
##rek
##rich
##rlene
##rley
##rous
##rust
##sky
##top
##tting
##ture
##ume
##woman
##yo
1995
20th
Agreed
Belgium
Bernie
Bloody
Broadway
Burt
CEO
Cam
Carmen
Centre
Chad
Connie
Correct
Crime
DID
Dee
Depends
Die
Donald
Einstein
Erica
Fiona
Game
Gene
Georgia
Grayson
Hail
Hopefully
Judgment
Killer
LA
Leon
Ling
Message
ONLY
Peg
Playing
Plenty
Prev
Ra
Reese
Rex
Seattle
Sharon
Simpson
Snow
Spike
Strike
Stu
Trevor
Unit
Vice
WERE
Waiting
Wallace
Weren
abode
adopt
alcoholic
arrives
audition
bend
boot
buttons
buzz
camel
chairman
clues
crappy
differences
disturb
divided
doc
dresses
engines
equally
flip
floating
flush
fond
foul
foundation
gesture
gossip
graduate
greedy
haircut
harmless
heh
illusion
innocence
institution
integration
intervention
involve
issued
jumping
laughter
leather
lest
ln
merciful
miracles
missile
negotiate
orbit
pace
palm
parole
performed
platform
poisoning
pos
posted
prayed
precisely
presume
procedures
produced
profits
projects
protector
regional
rehearsal
roast
rob
romance
ruining
sail
seated
shelf
sickness
signals
skirt
sorrow
strongest
stunt
suspended
sympathy
tanks
technique
touches
tragic
tricked
ungrateful
unlikely
wakes
waking
yoga
##AME
##KS
##are
##ather
##ax
##bled
##borne
##ciation
##cribe
##ctor
##dden
##ead
##eau
##ef
##eo
##hen
##iation
##ign
##ille
##inate
##ipper
##ites
##ith
##kers
##kle
##lence
##llow
##mination
##mos
##ners
##ood
##ples
##quire
##rance
##rat
##rell
##rude
##si
##take
##tics
##tile
##truction
##uin
##urs
##via
##vor
##wind
##wise
##yung
##zel
19th
95
Alec
Ally
Among
Arabic
Barnes
Batman
Beta
Bones
Boo
Brick
Brooke
Came
Class
Computer
Comrade
Cops
Cyprus
DC
Deep
Em
Enter
Eun
Eyes
Feeling
Forty
Friend
Guardian
Hunt
Islamic
Lenny
Line
Marine
Meaning
Moore
Mostly
Objection
Perry
Phoenix
Ring
Running
Shakespeare
Sheldon
Sing
TAKE
Teresa
Thompson
Tiger
Tokyo
Truly
Tucker
Violet
Warren
achieved
activated
adults
ankle
arrangements
artificial
ashes
assassin
banana
bean
bearing
betting
bowling
bracelet
bumped
calendar
carbon
carpet
casino
chess
civilian
communities
compromise
convincing
crashing
custom
deceased
dining
diplomatic
discipline
distraction
distress
dwell
emotion
endure
envelope
examination
excuses
expressed
failing
fee
fetch
graduated
grocery
hack
honored
horror
ignorance
inspiration
intimate
isolated
jar
leadership
literature
marshal
martial
merry
ministry
mortgage
noted
organized
owes
particles
petty
physically
picnic
pledge
precinct
principle
prostitute
protest
qualified
relevant
sensors
skinny
sock
sole
solo
sore
tables
toll
trailer
travelling
tribunal
trucks
vessels
violation
warp
wiped
wreck
wronged
##AM
##NCE
##OUGH
##RT
##TY
##aging
##all
##ato
##aw
##band
##chester
##dog
##door
##fi
##gard
##ich
##ifying
##ination
##ired
##ivin
##lect
##lings
##lop
##mat
##nik
##not
##ogue
##oid
##ologist
##ool
##ote
##ova
##piece
##power
##race
##rius
##rot
##sts
##try
##tta
##ult
##unch
##usk
##vised
##ón
4th
Ari
BEEN
Beat
Brandon
Bull
Carson
Drugs
Evans
Felix
Flash
Fly
Forever
Freddy
Garden
Gavin
Goa
Herr
Houston
Indians
Jan
Jedi
Judy
Luis
MAKE
Musa
Nonsense
Pacific
Pack
Post
Pray
Project
Rather
Remind
Return
Richie
Round
Safe
Simple
Southern
Square
Stewart
Teacher
Thinking
Thy
Turk
Vietnam
Web
Wherever
Witness
Woe
Ye
administration
adoption
aggressive
alternative
ancestors
associated
associates
attended
backed
bald
barrel
bets
bond
bubble
civilization
claiming
clearance
constant
consult
contacts
cord
cotton
customs
destined
dignity
drowning
dug
eager
ego
eternity
exception
explode
fleet
fooling
foster
fragile
fruits
fu
goose
handful
hast
herd
hon
instant
instinct
intentions
irrelevant
journal
lamb
lamp
lawn
locations
luxury
meds
messy
motherfucking
offspring
opera
operational
opposed
organic
orphanage
pissing
practical
primary
principal
psychiatrist
pursuit
questioned
radiation
ranks
rap
raw
rays
realised
reduced
registration
rescued
retirement
rocket
ruled
sailor
scam
scares
scars
scenario
scenes
sells
seventh
shotgun
situations
spies
spinning
statements
stream
strongly
succeeded
terrorism
thrilled
thunder
toe
tremendous
turtle
wherein
withdraw
wonders
worms
youngest
##OTHER
##OUND
##PD
##RA
##UT
##ables
##ago
##ards
##arily
##ase
##bert
##bu
##dd
##each
##gging
##hill
##hul
##iac
##ifications
##ined
##iny
##iver
##iving
##ju
##ken
##lah
##lare
##laws
##ledge
##lit
##mber
##mel
##mes
##nity
##ola
##oms
##ption
##rail
##rain
##rass
##ridge
##shire
##sie
##sin
##tone
##tre
##uce
##uch
##uish
##ulture
##vision
##yard
##ype
1998
1st
34
43
Action
Ankara
Apple
Archie
Based
Becky
Bet
Boom
Brennan
Cathy
Channel
Chill
Conrad
Course
Cute
DIDN
DVD
Dance
Dexter
Donnie
Eventually
Ex
Focus
Forces
Foster
Fuckin
Gina
Given
Gregory
Guards
Holland
Iron
Jared
Jefferson
Jonas
Manny
Martinez
McCoy
Medical
Mercedes
Mission
Mohammed
Neal
Noble
Ohio
Others
Oz
Pablo
Patty
Percy
Prison
RS
Rodney
Rudy
SAY
Sal
Sonny
Taxi
Thor
Tie
Tower
Twelve
Val
Venice
Worf
YES
Zagreb
aisle
ambassador
anxiety
attracted
balloon
banging
beats
belied
bicycle
bloke
bombing
brick
brutal
bugs
burger
buys
cafeteria
caller
celebrity
chains
chart
chemistry
circles
companion
concrete
confusing
consent
consequence
controlled
controlling
couples
cured
deadline
deals
democracy
despair
diagnosis
disabled
disappearance
dozens
drum
ducks
earthquake
episodes
essential
eyed
faint
farmers
fatal
feds
formal
forty
gasps
graduation
hairy
ham
hasten
hint
horny
husbands
hut
ink
inspector
interfere
journalist
keen
lazy
leaf
liars
lick
liquid
losses
lovers
magnificent
mechanism
metres
mob
mock
morgue
nanny
nearest
nigga
notebook
observed
ongoing
pad
pimp
pirate
plea
pond
pork
portrait
pregnancy
presidential
principles
pudding
purple
rang
representatives
residents
reunion
richer
sacrificed
scores
shade
shield
shrimp
sincere
snack
specialist
spray
stall
stated
steam
sting
stores
strictly
sucking
sum
summit
surprising
sweating
sworn
tension
tide
ton
trips
trophy
trusting
uld
unaware
understands
unseen
unsub
urge
vacuum
vegetables
vengeance
virtue
wage
waters
whomever
widow
wrongdoers
##AP
##BODY
##DY
##ICK
##LD
##LL
##LS
##TION
##ading
##ages
##art
##ators
##avier
##bble
##bound
##burn
##car
##cie
##cles
##cling
##culation
##cure
##east
##eous
##eration
##eri
##face
##ico
##idal
##ifies
##iko
##inal
##ique
##iti
##keeping
##lights
##min
##mn
##oam
##oned
##ora
##oral
##oy
##pan
##pass
##phone
##proof
##rby
##rdi
##rice
##rner
##rp
##self
##sman
##som
##ternal
##that
##thing
##verted
##yan
1991
2010
2012
38
Admit
Alliance
Anton
Bates
Behold
Bender
Bingo
Birthday
Brenda
Bridget
Canadian
Cassie
Claude
Crap
DAY
ER
Early
Elaine
Ella
Empire
Explain
Fall
Flynn
Fresh
Front
Glee
Goodnight
Google
Griffin
Hal
Hans
Hastings
Hee
Hide
Hood
Horse
Hungarian
Including
Ivy
Jenna
Katherine
Kira
Less
Liar
Lights
Manual
Mario
Marissa
Mercy
Michel
Min
Mona
Murder
NYPD
Nature
Operation
Ouch
Page
Peggy
Philadelphia
Praise
Shame
Side
Someday
Sort
Space
Stark
THING
Tammy
Timmy
WHY
WOMAN
Wells
abilities
abortion
absence
accomplish
accountant
affection
affects
aircraft
altogether
arguments
armor
author
bands
batteries
beard
behaviour
blocking
boost
bothers
bush
busting
candle
celebration
cherry
clay
colleague
column
compliment
conscious
continent
cooperation
counsel
cruise
cultural
decree
demonstrate
deposit
desperately
dock
dragging
drums
elderman
emotionally
entitled
evolution
execute
expand
expectations
extent
extract
flowing
footsteps
freaks
gene
genuine
glue
goals
grill
groom
hatch
hesitate
honesty
humiliating
ignorant
increasing
inevitable
injustice
instincts
interviewed
invasion
invest
jazz
jeans
lighter
limo
mates
mines
misfortune
mode
monitoring
murderers
opponent
outcome
owners
pals
papa
participate
passengers
philosophy
porch
preferred
prep
promising
puke
puzzle
recognition
refrigerator
reliable
resolved
responsibilities
resume
rhythm
rides
rod
saint
salesman
scaring
screams
seas
seizure
selected
spill
stalking
stoned
strict
struggling
supporting
tender
threats
topic
tourist
tourists
trafficking
ultimately
user
wandering
weed
weigh
western
whispering
wires
worm
##AY
##IAN
##ILL
##NA
##OY
##PA
##aked
##aver
##bin
##boat
##cated
##cript
##ctic
##ected
##ester
##foot
##ggy
##gn
##gon
##gration
##hop
##ieving
##ike
##istics
##iv
##kie
##lian
##licate
##lous
##lus
##mas
##mates
##mmy
##ocks
##omy
##ont
##rage
##rank
##rations
##rging
##rol
##sey
##tent
##tribute
##uan
##uating
##ude
##ulated
##uted
##vious
##with
##yre
10th
52
Abe
Agnes
Alfred
Andrea
Apostle
Arizona
Atlantis
Balkans
Baltimore
Bauer
Bennett
Brady
Brody
Brooks
Building
Burn
CD
Calvin
Cass
Cliff
Da
Defense
Different
Dong
Erin
Field
GPS
Glenn
Global
Himself
Hop
Hughes
IV
Ibrahim
Ireland
Javier
Joo
Jose
Las
Madison
Merlin
Mick
Nadia
Niles
Path
Pierce
Pilot
REALLY
Raise
Reynolds
Rio
SURE
Shadow
Smile
Sports
TELL
Tess
Town
Tree
Twice
Unbelievable
Usually
WAY
WOULD
Ward
Went
Yong
accidents
addict
adjust
admonition
advertising
apostles
applied
approached
blackmail
chew
classroom
climbing
compare
compensation
connections
consistent
conversations
cooler
coroner
cups
curtain
dash
decade
deceive
defined
differ
duties
eighth
embarrass
emperor
era
executive
expelled
expense
explore
fart
features
females
fiancée
fingernails
flames
flee
footprints
freely
frighten
fundamental
fuss
grasp
heir
helpless
hiring
humiliated
immune
importantly
income
increases
initiative
input
interior
interrupting
interviews
kiddo
liberty
lifted
linked
lip
lottery
manual
masks
ministers
modest
monkeys
motorcycle
mount
navy
neat
nerves
nickname
nightmares
offensive
operator
parade
paths
pepper
pickup
plead
popped
poster
pressing
publicity
publish
raining
reaches
rebel
refer
regards
relation
resort
responding
scarf
scoop
scout
shining
slaughtered
smoked
soccer
stalker
stored
suggestions
survivors
thread
til
tires
tournament
travels
trials
tunnels
unexpected
united
unnecessary
urine
vet
vows
whereas
whores
wooden
##BS
##DA
##KE
##NE
##PS
##UN
##acy
##ander
##ben
##bridge
##care
##cate
##cca
##ches
##cking
##cu
##ders
##ency
##end
##era
##fold
##formation
##friend
##get
##gg
##gged
##hannon
##how
##iate
##ichi
##iful
##ila
##inating
##je
##keeper
##lated
##leen
##lers
##lets
##live
##lk
##lug
##nish
##nor
##oked
##oma
##orm
##part
##pic
##pit
##position
##ream
##reat
##rik
##rist
##rive
##rman
##rost
##rton
##rwin
##smith
##sters
##tling
##tly
##tons
##uction
##uddle
##uffy
##ulating
##vern
##works
##zar
12th
AS
Anytime
Ava
Balkan
Band
Basically
Battle
Becca
Bond
Bosnian
Bruno
Brussels
Chairman
Chan
Chelsea
Choi
Coast
Collins
Congress
Corporal
Cristina
Daphne
Delta
Destroy
Dixon
Doe
Donny
Drake
Easter
Episode
Ernie
Excellency
Finch
Fisher
Fitz
Garrett
Gil
Governor
Granny
Gray
HAD
Hamilton
Health
Iike
Impressive
Jasper
Klaus
LAST
LITTLE
Local
Lola
Lynn
Marc
Maurice
Mississippi
NEVER
Nat
Nothin
Pakistan
Quentin
Ram
Reagan
Reed
Renee
Self
Serena
Services
Sheila
Shepherd
Short
Sick
Sire
Society
Sophia
THEN
Tarzan
Tea
Tessa
Total
Touch
Unh
Vienna
Wesley
Wong
Yu
Yugoslavia
accidentally
accurate
accuse
advised
agencies
airplane
allegations
appreciated
automatic
backing
ballet
barrier
bartender
bells
blond
bold
bomber
butterfly
catches
chambers
championship
cheaper
choke
circuit
cleaner
clip
collapse
collecting
colony
conquer
contains
convention
cough
crawling
cult
deliberately
demonstration
detectives
discount
disturbed
dive
dolls
dome
doomed
dot
driveway
drugged
element
est
executed
facial
fist
fluid
forcing
fries
gin
glorious
granddaughter
grey
grounded
guessed
handy
haunted
healed
humiliation
hunch
importance
inappropriate
incompetent
interference
karma
landscape
lean
lethal
lid
males
maniac
mansion
matched
musician
nicely
notion
offices
op
ordering
organ
overheard
pa
parliamentary
partnership
patterns
pension
phoned
pleases
poems
pole
poverty
preserve
prices
processing
proofs
prosecution
protects
provides
psychological
psychopath
publisher
punched
receipt
recommendation
reduce
referred
referring
remaining
remembrance
rental
rep
rode
rolls
roses
ruins
sang
seeds
semester
sequence
shaped
shiny
shouting
sinners
sip
spilled
stab
steer
suitable
summoned
suspicion
tasted
throws
tortured
transmitter
treats
triggered
troubled
twisted
utterly
verdict
vic
visa
visitor
waiter
wax
wee
whale
writes
yield
##15
##DP
##DS
##ITY
##KING
##aid
##aire
##arable
##bad
##bited
##chy
##culate
##dar
##ddy
##dic
##ec
##eck
##elt
##erald
##for
##gic
##hic
##hips
##hoo
##ida
##ider
##ika
##ilt
##iment
##itch
##ivate
##ively
##kar
##lash
##laze
##lied
##like
##mail
##mir
##nh
##nin
##nner
##oes
##ography
##old
##olly
##oot
##oper
##oring
##ough
##press
##quish
##rger
##rium
##rons
##ryl
##tos
##tron
##truct
##tructed
##ule
##umble
##urd
##urt
##uses
##vene
##water
##wk
##won
##zzle
##´re
1992
62
ANYTHING
Age
Along
Amelia
Archer
Away
BY
Bird
Bless
Bush
Busy
Campbell
Chester
Christina
Civil
Continue
Creator
Cynthia
Fancy
Fill
Gaby
Glory
Gwen
Hercules
Hugo
Images
Impossible
Iran
Irene
Jon
Learn
Lester
Lf
Marilyn
Mass
Milan
Moving
NCIS
Northern
Pearl
Plan
Polish
Remove
Rocky
Sarge
Section
Seen
Shot
Sky
Smells
Soo
Temple
Thousands
Unlike
Voice
Wes
Willow
Wish
Yoon
Ziva
aimed
allowing
articles
assembly
assets
attending
babysitter
billions
blank
bounce
bruises
caring
carries
cartel
cheek
chemicals
cigar
clearing
click
cliff
coins
combined
complaints
concentration
confidential
contained
continuing
cousins
cows
creep
cuffs
definition
dense
dental
depth
determination
digital
disposal
distribution
donor
douche
embrace
equation
experiments
fame
farther
fifteen
filing
finishing
flights
flock
fooled
fort
gap
greatly
habits
happily
honorable
humiliate
impatient
insulting
investigator
junkie
listed
lobster
longest
loop
maintenance
masters
melt
mischief
misses
mule
neighbours
newest
notify
obsession
obtain
occupied
ol
panties
partial
passports
peanut
peoples
permitted
picks
pirates
pointing
polite
pose
practiced
presidency
profound
protective
protein
psych
pub
pumpkin
racist
rally
recognised
regrets
regulations
relate
reply
represents
riot
robbing
rubbish
salmon
sayin
scumbag
semi
sentenced
settling
sexually
showers
sinful
sketch
slit
snakes
spying
supermarket
supervisor
supported
sweaty
targets
tearing
temptation
torch
tossed
traded
urban
veil
visits
void
voted
watches
wrath
##40
##77
##CA
##LES
##LING
##MAN
##OT
##ache
##acher
##aga
##aine
##ani
##aning
##any
##ared
##arm
##balls
##burger
##cess
##child
##cluded
##com
##dad
##dium
##dom
##eel
##ela
##ensus
##ero
##erty
##erve
##ffe
##gent
##gger
##him
##hore
##ift
##ilize
##ima
##itz
##ivated
##lide
##lion
##lling
##lope
##mies
##mmer
##mont
##ndo
##offs
##oi
##ological
##osis
##ound
##pes
##phere
##pose
##print
##ptic
##ramp
##rits
##round
##rov
##runts
##rve
##sable
##sal
##sions
##slav
##thel
##tton
##uary
##ues
##uma
##urance
##uro
##used
##usty
##var
##wick
##wift
##writer
##zon
17th
192
Abigail
Adams
Add
Ahem
Alaska
Anywhere
Atlanta
Auntie
Ball
Belle
Born
Bradley
Bucharest
CTU
Child
Christy
Cleveland
Closer
Coke
Communist
Contact
Cuba
Danielle
Detroit
Doyle
Erik
External
Feels
Felicity
Fry
Fun
Gardner
Glen
Greetings
Gross
Halt
Harriet
Hawaii
Heads
Helena
Hills
Iris
Isabel
Jacques
Jade
Ji
Julius
Jupiter
Kenneth
Land
Lizzie
Luckily
Madrid
Marry
Marshal
Mel
Normally
Norway
Nowhere
OUR
Oi
Olympic
Olympics
Orange
Otto
Peyton
Problem
Public
Rusty
Sawyer
Season
Sitting
Skopje
Sloan
Spider
Stephanie
Susie
Sword
System
Tanner
Thing
Vera
Vulcan
Wally
Wife
Wonder
Yellow
accusations
adore
allergic
ants
arrow
assaulted
attempting
awaits
awhile
backpack
bake
behold
biological
blockquote
blues
blunt
brandy
brethren
briefcase
bunny
butcher
certainty
challenging
cheering
chewing
chickens
chopper
cinema
closes
cocktail
comments
conceal
condom
confirming
convey
convict
corporation
correctly
courtesy
crushed
darkest
debris
deepest
democratic
difficulty
dip
diseases
disobeyed
disrespect
eagle
edition
encourage
endless
environmental
examined
examples
extend
fade
fiancé
fiction
fighters
fingerprint
fled
fortunate
fugitive
fulfilled
functioning
gangster
girlfriends
gratitude
greet
groceries
hardware
haul
hereby
hilarious
hood
hush
identical
individuals
instruments
invent
ironic
janitor
jewels
jinn
kisses
lasted
lengths
locks
mill
mini
minority
moms
movements
municipality
muscles
nerd
nickel
noises
nursery
obligations
orgasm
ow
perish
pervert
poop
poured
precise
pressed
pretended
promoted
railroad
razor
readings
remembering
remembers
represented
resignation
ridge
rig
risked
scent
seduce
serves
shrink
slaughter
smack
sophisticated
southern
speaker
st
stability
starve
stash
stripper
strive
submarine
swell
swept
targeting
teenage
th
timer
tolerate
tongues
transportation
unpleasant
vagina
vegetable
veins
virtual
von
warnings
whipped
whomsoever
wool
##60
##IED
##IES
##IL
##IM
##MS
##RING
##SA
##ado
##agan
##ags
##ami
##ann
##bas
##bet
##bone
##cco
##cense
##chard
##cify
##ctions
##culated
##dice
##doers
##eed
##eks
##emp
##fed
##feld
##ffirmative
##ficial
##fying
##gas
##gence
##gies
##gistrate
##graphy
##gress
##hake
##iah
##iator
##ican
##icial
##igo
##iled
##iling
##inary
##ingly
##ishing
##itated
##kovic
##lai
##lasting
##lement
##lict
##liers
##logical
##logies
##los
##mus
##nked
##nn
##now
##nzo
##olves
##orous
##ously
##play
##ply
##pool
##posing
##quate
##quisite
##rans
##raphic
##rash
##rates
##reak
##redible
##reek
##rem
##rett
##rical
##rier
##rise
##rra
##rumpet
##soever
##sta
##stream
##tated
##tery
##tric
##tto
##uit
##ulsive
##upon
##ustle
##uto
##vative
##vel
##vere
##vey
##was
##wear
##wing
##witz
##zie
18th
1999
8th
Affairs
Against
Airport
Amsterdam
Angelo
Arab
Armed
Ash
BAR
BECAUSE
Bella
Board
Bow
Box
Brain
Brilliant
Bug
Buster
COULD
Candy
Chicken
Chip
Choose
Clarke
Claudia
Completely
Cook
Crystal
Cypriot
DA
Democrats
Dewey
Doris
EC
Eden
Edgar
Ellis
Erdogan
Everywhere
Extra
Fast
Fifteen
Final
Former
Forward
GOD
Games
Gideon
Guns
Hague
Hardly
Institute
Israeli
Jonah
Kang
Kingdom
Late
Leaving
Level
Lie
Luther
Lydia
Machine
Mandy
Married
Means
Monkey
NEED
Nikita
Nolan
Oft
Paulie
Pennsylvania
Pink
Possibly
Precisely
Protect
Pure
Questions
Raj
Ran
Ranger
References
Release
Resistance
Roz
Samuel
Scotland
Senior
Sherlock
Sidney
Slowly
Stanford
Steady
Stella
Switzerland
TOO
Terrific
Tis
UNMIK
Vega
Venus
Walden
Wheeler
Wizard
Woody
Works
Wraith
Yoo
acceptable
accompany
addresses
aged
alleged
alter
ammo
amounts
arresting
ashore
asset
assuredly
avoiding
bacteria
bare
bathtub
battles
bearer
bestowed
bin
biscuits
bitten
boiling
boxing
brass
breed
businessman
butts
buyer
camping
cans
caution
champ
chap
charging
choosing
clan
clowns
companions
comparison
compliments
comrades
consideration
context
cracking
craft
del
denying
depending
descendants
directors
disappoint
disappointment
disorder
documentary
doth
drone
earrings
elbow
embassy
envoy
envy
equivalent
evaluation
evolved
expedition
expenses
explosive
facilities
faggot
faking
fastest
feared
filming
flavor
float
fountain
funding
fur
furious
guarding
headline
hearted
hee
hobby
horizon
hottest
hypocrites
id
immortal
immunity
impulse
incidents
info
insight
inspire
intercourse
interrogation
invention
judged
kung
legitimate
lemon
louder
lowest
meth
missions
nailed
necks
needles
orphans
pairs
palms
passenger
penthouse
performing
persuade
physician
plasma
pod
possessions
praises
preparation
primitive
probation
probe
processed
prophet
proves
puppies
raid
rash
reckoning
recruit
reflection
reserved
resign
resolution
resolve
righteousness
righty
risking
roots
runner
savings
scrap
selection
shines
shorts
ski
skies
smallest
snitch
stadium
subjects
successfully
sunset
tactical
tales
techniques
teenagers
tipped
tougher
towels
towers
toxic
traced
treasures
unfinished
vaccine
vehicles
vent
videos
volume
warmth
warriors
weekends
wheelchair
whisper
wired
wit
www
##44
##AND
##BC
##ERS
##FA
##HER
##OB
##VING
##ael
##aman
##aming
##ank
##aze
##bage
##break
##cci
##cified
##cky
##cock
##cro
##dan
##dded
##dicate
##duce
##encing
##eng
##enna
##erate
##ete
##fu
##gize
##gone
##grated
##guard
##hal
##hantom
##hea
##held
##his
##hor
##horn
##iant
##ibly
##icide
##icles
##iddle
##ido
##ief
##iew
##ilation
##innie
##ips
##irs
##ista
##iva
##lade
##lex
##lications
##lice
##llie
##long
##lord
##makers
##master
##most
##nation
##nch
##neck
##onies
##ook
##ops
##osing
##ota
##paper
##pur
##quisition
##ramps
##ratic
##rave
##razier
##reen
##rel
##rio
##riots
##rix
##roach
##rose
##scent
##sian
##ska
##some
##stand
##star
##sted
##sty
##tah
##tails
##tas
##tum
##utor
##vade
##venue
##vincible
##walk
##weight
110
11th
46
49
57
58
70s
7th
AFTER
Addison
Afraid
Alvin
Amber
Avery
Aww
Ay
Bert
Blessed
Boone
Borg
Bottom
Buddha
Cap
Cardinal
Cheryl
Chi
Classic
Clayton
Color
Considering
Courtney
DOWN
Damien
Defence
Doctors
Edie
Edith
Eleanor
FROM
Festival
Flight
Florence
Frankly
Franz
Freedom
GONNA
Gabe
Gas
Gilbert
Gods
Gotham
Haley
Henri
Hiya
Homeland
Howdy
Hush
Hyun
Il
Jerusalem
Joshua
Judith
Kai
Kathy
Kurdish
Lisbon
Marcel
Mei
Milk
Mina
Mini
Moe
Montana
Monty
Napoleon
Newton
OVER
Official
Oops
Oxford
PEOPLE
PLEASE
Pain
Pan
Pentagon
Personal
Philly
Powers
Principal
Prove
Province
Rain
Republika
Rings
Roberts
Robinson
Ronald
Rush
Russ
SOMETHING
Sanchez
Scared
Scotty
Select
Senate
Seoul
Shaw
Sound
Speed
Srpska
Storm
Sung
Sunny
Supreme
Swedish
Sweetheart
Swiss
Tanya
Target
Technically
Terrible
Tirana
Trudy
Turtle
Vivian
Voyager
Wanted
Whitney
Whole
Yankee
Years
Yuri
absent
accepting
ace
acquired
adds
agreeing
aiming
ambush
ammunition
anchor
anticipated
applause
arriving
aspirin
asylum
autograph
banished
beasts
beliefs
belongings
belts
blamed
bluff
boundaries
breakdown
cafe
calf
cancelled
cannon
casual
chiefs
codes
collected
collective
comb
commands
comprehend
conclusion
condolences
condoms
confined
considers
contents
cope
counselor
coup
courts
crop
crowded
dearest
deciding
detention
devils
dice
divide
dizzy
electronic
elite
engineering
essentially
evacuate
exhibit
exploded
farewell
filth
finals
finance
flirt
forgiven
fracture
freezer
fuckers
gal
gamble
gauge
generally
generator
glance
glove
gutter
hangs
haply
harvest
headaches
hopeless
hormones
hospitals
hosts
imaginary
implant
indictment
informant
ingredients
insects
inspection
intellectual
jammed
jelly
john
joints
justify
karate
keeper
ketchup
kicks
knoweth
laboratory
labs
lasagna
lasts
lawsuit
lifting
lined
loading
loads
lockdown
locking
magician
mails
majesty
meals
mentally
mentor
mosque
mummy
mute
myth
naive
needy
newspapers
ninth
noticing
objective
obligation
onions
operative
pact
pains
pancakes
patrols
pickle
pious
plague
pledged
polytheists
predict
priests
printed
properties
protocols
psychologist
pulls
purposes
pursued
rainbow
rebellious
recited
recommended
regime
rendezvous
repeated
respects
respite
retrieve
reveals
revolutionary
robots
ruthless
sacrifices
scissors
sh
shoots
sincerely
skeleton
slippery
smelly
solitary
sorted
spa
spectacle
spectacular
spite
spokesman
stain
stamp
stove
supports
surrendered
surrounding
sustenance
teaches
teenager
texts
thorough
thrust
tomb
transition
triumph
trousers
undo
uniforms
unnatural
vase
viable
vicinity
waving
wig
woo
wrestling
wretched
##ACK
##ALLY
##ATE
##EC
##EL
##HING
##OM
##ORE
##acting
##aky
##arrison
##asy
##ath
##atory
##ature
##backs
##bate
##bedience
##bes
##bird
##cal
##cination
##cooter
##cribing
##cross
##cute
##dal
##dels
##dio
##dler
##eam
##eb
##ech
##elf
##elves
##ento
##ere
##erry
##eze
##ffed
##frey
##gel
##ggs
##hand
##hew
##if
##igned
##iring
##irsty
##iscuit
##iselle
##itable
##itate
##itis
##iu
##izzy
##jay
##jected
##job
##kov
##lapping
##lat
##liding
##lina
##lish
##llo
##mouth
##nger
##nova
##ntly
##ob
##oli
##ooh
##opy
##ovski
##owski
##pathy
##picious
##ppy
##pression
##pulsion
##quel
##quent
##ques
##ranny
##reaming
##reasury
##rench
##retta
##rf
##rg
##ril
##rms
##roat
##rofessional
##roy
##rush
##semble
##shot
##stical
##tial
##tina
##titute
##uadrant
##uded
##uge
##uppet
##urage
##urai
##uri
##utions
##vering
##verse
##vian
##vies
##vise
##wave
##west
##yers
##yla
##ypsy
##yr
##yu
##zzi
##á
120
13th
350
51
55
63
AGAIN
Alvarez
Ariel
Asian
Attack
Aware
Baron
Beneficent
Bette
Bit
Brendan
Bunch
CSI
Callen
Cary
Charming
Chef
Chen
Clinton
Colorado
Criminal
Darcy
Darren
Debra
Devon
DiNozzo
Draw
Edwards
Emergency
Fang
Gang
Gates
Giving
Hallelujah
Hate
Herbert
Holden
INTO
Ignore
Isabelle
Jae
Kane
Kay
Kenya
Kick
Killed
Kit
Kostunica
List
Loser
Louie
Low
MR
Mademoiselle
Main
Manager
Manuel
Maura
Meeting
Memorial
Mouse
Moya
Nash
Natasha
Nazis
OLD
Orleans
Patterson
Pedro
Potter
Records
Rest
Rise
Roll
Rosie
SORRY
Sacred
Scout
Se
Settle
Shelly
Singh
Sleeping
Sooner
Spring
Squad
Suppose
Syd
THEM
THOUGHT
Ta
Tiffany
Timothy
Train
Trey
Uhh
Unknown
VERY
Vaughn
WANTED
Wars
Wash
Wild
Wilfred
Willis
Wolfe
Woods
Worship
abducted
abnormal
ahold
ally
amateur
anyways
array
artery
athlete
athletes
attic
attract
audio
avail
await
awards
backyard
baked
balcony
banged
banned
barbecue
bathing
beacon
believer
bestow
bizarre
blend
bolt
bounds
bra
brink
bully
burglar
cakes
canvas
casting
casualties
cellphone
cemetery
channels
cheeks
cheers
choking
chooses
clerk
coalition
colored
compass
conducted
contracts
contribution
corners
corpses
cozy
cradle
crate
crawl
curtains
dam
danced
decorated
delayed
delight
deposition
designer
detect
devices
dinosaurs
distinct
dose
download
draws
drift
dwarf
dwellers
eastern
elderly
elders
employment
english
erm
essence
et
fabric
fairness
favorites
firmly
flattered
fog
foremost
fork
founded
fragments
francs
freaky
frequently
frog
gag
gifted
goddess
gracious
gravy
greed
grievous
hairs
hanged
hardest
harmony
hay
honoured
hostile
hotter
housekeeper
idols
ignoring
improving
inclined
inherited
inmates
insulted
intercept
interface
invested
involvement
involving
irony
jealousy
jurisdiction
justified
kidnappers
kilometers
kilos
kun
labour
layer
learnt
leverage
limb
lipstick
lure
lyrics
mailed
maps
mattress
med
meter
missiles
mixing
morphine
multi
musicians
na
negotiating
nicest
nude
nursing
offence
organisation
origin
output
overwhelming
painter
particle
passionate
pier
playground
poke
polls
portal
potentially
pouring
praised
prank
prettiest
pros
providing
pursuing
quest
quicker
quid
rebellion
recess
refugees
regularly
repairs
repeating
replied
representing
respected
sabotage
sadness
salon
sanctuary
seasons
secrecy
sensing
sentimental
setup
shaken
shifts
shocking
slay
smartest
snuck
soo
spared
sponsored
stabbing
stir
stitches
straw
substitute
sunglasses
surviving
swallowed
swine
swollen
swords
tab
tellin
terminal
texted
thoroughly
thugs
tick
transaction
transplant
treaty
tv
uncovered
underwater
unstable
valve
venture
via
vibe
views
villain
virginity
wheat
writers
yen
##85
##ARD
##BE
##CO
##GO
##IG
##ITE
##Id
##MA
##NG
##OST
##Q
##RADE
##URT
##WAY
##acing
##ala
##aro
##ata
##aux
##avage
##bee
##beth
##bile
##borg
##bour
##cast
##cel
##cence
##cession
##cey
##cial
##city
##clusive
##culating
##cussion
##dication
##dington
##dra
##eas
##egation
##ele
##erial
##eries
##erson
##ested
##ffer
##ganda
##gating
##gian
##going
##graphic
##har
##hoe
##icating
##icence
##ield
##ipping
##iro
##irteen
##isco
##itating
##jure
##kind
##lator
##lene
##lessly
##lew
##liness
##lip
##llor
##lson
##lty
##luck
##lumsy
##lusion
##marked
##marks
##mbers
##mity
##mmit
##moto
##mura
##nable
##nging
##nks
##nning
##nted
##ntial
##oll
##oni
##oop
##oran
##osed
##oting
##owed
##ows
##pants
##passing
##patch
##pired
##quest
##quin
##ractor
##rad
##rained
##rapped
##rathon
##rc
##rease
##ressed
##rians
##rib
##rified
##rite
##rky
##rock
##rries
##ruise
##ryan
##saken
##san
##sible
##tach
##tches
##tically
##tract
##tude
##uation
##uben
##uiz
##ull
##umbo
##uns
##uration
##user
##uth
##vana
##vant
##vereign
##version
##what
##wife
##witch
##xed
##yl
##ynamic
##zz
##és
1000
130
16th
21st
41
59
98
Accept
Armstrong
Austria
B92
BP
Beyond
Blast
Briggs
Bro
Burton
Cabinet
Canyon
Cara
Carlo
Carolina
Cha
Charge
Cho
Co
Constitution
Costa
Crown
Cyrus
Deeks
Del
Delhi
Denny
Diamond
Dodge
Driver
Dumb
EVEN
Elias
Erm
Esther
Eugene
Euro
Feds
Fi
Fighting
File
Florrick
Fool
Fourth
Gallagher
Geez
Getty
Glass
Gu
HIV
Hanging
Hannibal
Hassan
Homicide
ICTY
Janice
Jax
Jeanne
Jessie
Joanna
Keller
Key
Keys
LAPD
Les
Lets
Lift
Lila
Lin
Lose
Luka
Makfax
Marines
Marriage
Matthews
Montgomery
NEW
NICE
Nations
Nearly
Neill
Nobel
Noel
Olive
Omar
Paper
Piece
Pizza
Pole
Port
Preston
Prize
Putting
Question
Rogers
Romans
SWAT
Sasha
Sexy
Sharp
Shelby
Shelley
Shin
Si
Skip
Snake
Springfield
Springs
Staff
Stevens
Stuff
Su
Sultan
Suzanne
Table
Them
Torres
Trent
Trish
Tuvok
Upstairs
Using
Victory
Village
Virgin
WAIT
WORK
Warning
Worked
achievement
acquaintance
admission
airplanes
amusement
amusing
analyze
antique
apartments
apocalypse
appoint
argued
armies
ash
astronaut
baggage
baking
beep
bites
bled
bliss
bloom
bonds
boo
borders
breakup
bruised
bunker
bureau
carriage
cartoon
category
caves
chatting
choir
chops
christmas
chuck
clone
cloth
comforting
commercials
commissioner
compartment
compassion
competitive
condemned
connecting
constitution
costumes
counterpart
courthouse
cowards
crab
creeps
cries
cruelty
cupcakes
dagger
dared
dealers
deception
defensive
denial
departure
depressing
developments
distinguished
distract
diving
donkey
don´t
doorstep
dreamt
drivers
dunno
dye
educational
elegant
eliminated
embedded
encouraging
epic
equals
equipped
equity
establishment
esteem
ethics
exercises
expects
extension
factor
favours
feather
figuring
fitting
forgave
fox
freed
frustrated
fry
garlic
geek
gladly
globe
glowing
grandparents
graves
hallucinating
handing
handwriting
harassment
heartbeat
heating
hence
hippie
hog
homecoming
homemade
housing
hunted
imagining
immigrants
immoral
index
inherit
instrument
intern
inventory
invoke
involves
irresponsible
jackass
jerks
landlord
languages
le
legislation
lesser
lighten
madame
manipulate
marine
materials
measured
mechanical
memo
memorial
mi
mold
mourning
neighbour
noodles
numbered
openly
oppose
oral
outstanding
override
participation
passive
pause
payments
peed
perfection
permanently
plainly
plotting
plumber
pointless
pops
possibilities
preach
preacher
preserved
prettier
prevail
priorities
programmed
pronounce
proximity
psychotic
publicly
punishing
rack
radical
rail
rapidly
register
removal
residue
restless
restraining
rewarded
rotting
sailing
scope
scored
senator
sensor
severely
shaft
shameful
shave
shipped
shorter
sings
skipped
slain
slipping
smokes
smuggling
sour
spinal
spine
splendid
spoiled
stew
sticky
straighten
strain
stray
striking
su
subjected
subtle
summon
suspension
swamp
tease
thigh
thirst
ticking
tin
tomatoes
transformed
traps
treason
tribes
understandable
universal
upright
uptight
urged
users
vague
vegetarian
videotape
vile
villages
violated
virtuous
visions
volcano
volunteers
warden
welfare
whack
workshop
worldly
wormhole
wrists
yogurt
##20
##50
##79
##90
##AA
##AC
##ATCH
##DE
##EE
##IDE
##II
##IRE
##IST
##MENT
##OL
##REE
##SELF
##TED
##URE
##active
##acts
##ahan
##ales
##alt
##arp
##ati
##avalry
##bach
##bian
##bis
##bow
##broken
##card
##ccess
##cene
##chid
##coe
##cotch
##ctory
##cuse
##cuted
##dly
##ean
##ecile
##ely
##emption
##ene
##erick
##eus
##eve
##fect
##ffice
##fication
##fies
##fight
##fort
##gins
##gious
##gles
##gor
##hai
##hot
##icient
##icipants
##iel
##igan
##ige
##iler
##inny
##irect
##isy
##lair
##lake
##lakes
##lance
##largement
##laring
##lass
##later
##lik
##lined
##lix
##lles
##llion
##llis
##lma
##look
##lore
##lur
##mary
##mma
##mply
##nah
##nick
##nier
##nking
##nnected
##nob
##num
##oan
##ogy
##oh
##oise
##oning
##oration
##osh
##oven
##pen
##pent
##pie
##pike
##piration
##ppa
##pressed
##pse
##ptor
##rageous
##raiser
##ranslation
##rden
##rds
##rior
##rlin
##roid
##shaw
##sies
##source
##struct
##sé
##tained
##tim
##tized
##tory
##trix
##tsu
##turing
##uct
##uffin
##uicy
##undering
##unting
##uries
##urnal
##uv
##vak
##versity
##wall
##wer
##wl
##worm
##wski
##yah
##your
##ysis
##zan
##zard
##zen
##zio
##ía
1989
2014
39
66
68
Ace
Aha
Aim
Alas
Albanians
Alexandra
Alexis
Allan
Ana
Angels
Arnold
Assuming
Astrid
BBC
Babylon
Barbie
Barrett
Baxter
Beauty
Beer
Body
Brazil
Broken
Bryce
Calling
Camille
Camp
Cancer
Cash
Cassidy
Chance
Chapter
Charley
Chet
Clarence
Connecticut
Continues
Cruz
Cylon
DAD
DEA
Daily
Danger
Davey
Days
Denmark
Disney
Dogs
Dolly
Dolores
Eagle
Eye
Fargo
Fifth
Film
Finance
Finding
Fletcher
Fortunately
Foundation
Francine
Frasier
GUYS
Gandhi
Gave
Gay
Goddess
Greta
HUH
Hammond
Henderson
Hundreds
Isabella
Jacqueline
Jamal
Jenkins
Job
Jr
Juliette
KFOR
Kelso
Kings
Kirsten
LOVE
Lars
Laurie
Leader
Lina
Lorenzo
Lucifer
Lux
MORE
Malibu
Mallory
Masters
Matty
Mayday
Milo
Missing
Mo
Montenegrin
Mosque
Newman
Note
OFF
Peterson
Proceed
Protection
Revolution
Reyes
Rod
Roosevelt
SAID
Sabrina
Sadly
Sanader
Saying
Seo
Serious
Shanghai
Sheppard
Sonia
Spare
Stewie
Sylvia
Talbot
Taste
Thai
Than
Throne
Track
Trade
Tristan
Trouble
Vicky
Wang
Whom
Worse
Yea
Yusuf
accordance
acknowledge
addiction
alongside
antidote
ape
apologise
appearing
applying
artifacts
aspects
assign
atomic
attraction
aught
authentic
authorized
bankrupt
beta
betrayal
beware
biting
blazing
bodyguard
boil
boob
booty
branches
briefing
buffet
buses
butterflies
candidates
caravan
carve
casualty
cautious
chan
cheerful
cheerleader
chilly
chores
comeback
cometh
comics
confuse
congratulate
conjecture
considerable
consultant
counseling
credentials
criticism
crowds
cue
cultures
curfew
debts
deceived
decline
delivering
demanded
depths
deserted
detector
devour
dialogue
disappointing
discreet
discretion
disgust
disobedient
donation
emails
entertain
entity
erase
erased
essay
expansion
exploit
extended
fails
failures
faithless
fare
fearless
feature
fellows
flattering
flirting
floors
flown
folder
foods
forgets
forming
founder
freshman
gangs
gateway
grabbing
guarded
hacked
hardship
hash
heated
historical
hose
hydrogen
improved
inheritance
inn
insists
intent
investors
islands
kidnap
killings
knight
knots
lasting
leap
lightly
lodge
logical
lounge
lump
lust
madman
maiden
mainly
makin
malfunction
marijuana
meteor
microphone
mild
missus
mixture
molecules
monk
mop
narcotics
necessity
neglect
newly
nicer
nick
nuns
oaths
observation
overseas
paranoia
parting
partying
pearls
peek
peep
pencil
perception
phenomenon
pies
polar
posing
pounding
predicted
proclaim
produces
prophecy
proposing
prospect
proving
psychology
pumped
quarterback
raft
raging
reckless
relaxed
restored
restricted
rigged
rises
robbers
robe
roommates
ropes
roughly
royalty
rug
saddle
scotch
sewer
shattered
shitting
shops
shovel
siege
sights
simpler
sinned
sleeve
slutty
snapped
sofa
solutions
sounding
spaghetti
spark
specimen
spontaneous
spoon
stack
stains
steadfast
stem
stepping
stinking
storms
subspace
substance
superhero
swap
swelling
temporarily
tempted
thereafter
thumbs
tom
tow
towns
trains
transgressors
translate
traumatic
treacherous
trusts
twain
unemployed
valid
verge
vomit
voting
vow
waltz
wander
whisky
wizard
worshipped
yacht
yelled
¢Ü
##30
##69
##71
##83
##84
##ACE
##EP
##ISH
##NY
##OC
##OLD
##abe
##acle
##afé
##aka
##amo
##ancy
##anna
##ansas
##antly
##aper
##arms
##asa
##atistics
##ault
##aves
##bacco
##bai
##berries
##bey
##bourne
##cape
##certain
##ching
##chise
##ciate
##cient
##cinated
##cket
##claim
##cot
##creen
##dding
##dent
##dian
##dict
##dles
##ecute
##eds
##eem
##ein
##elegram
##emal
##enzie
##essler
##esting
##estive
##etta
##from
##front
##gated
##ggression
##gra
##grade
##gun
##have
##hn
##hua
##hug
##ially
##ibbon
##iculous
##ien
##iency
##ifact
##ific
##iggy
##ikh
##illo
##ilo
##imer
##inated
##inder
##intage
##iry
##itiate
##ivation
##ived
##jan
##jar
##kable
##kles
##lacing
##lag
##laine
##lank
##lant
##lein
##lena
##lication
##lone
##macy
##mad
##mics
##mmed
##mons
##mund
##nesia
##nickers
##nival
##nky
##nley
##nore
##nson
##nton
##nus
##ody
##oker
##oking
##olk
##ols
##olution
##ones
##orah
##ored
##oss
##path
##plash
##ptions
##quat
##ractice
##rane
##ranged
##rategic
##rath
##rchives
##rill
##rks
##rna
##rns
##roud
##roup
##rvivor
##shine
##shit
##sicist
##sley
##smen
##ssa
##sting
##tail
##taken
##ternity
##tives
##tributed
##uang
##uantum
##uate
##ubling
##uca
##uctive
##uda
##uddy
##uggle
##ughter
##uins
##ultural
##ummy
##unal
##urney
##urry
##usion
##usions
##utable
##uture
##vah
##vasive
##visor
##voir
##voy
##wed
##weet
##wig
##wilight
##yden
##yed
##yet
##ynthetic
##zens
##à
##οu
101
14th
1943
1993
5000
73
85
97
9th
AIDS
ANY
Afternoon
Animal
Arabs
Arctic
Ark
Assistant
Australian
Avengers
Banks
Bar
Bea
Beast
Bloom
Bree
Buzz
CALL
CHUCKLES
Caught
Cece
Championship
Checking
Cinderella
Clan
Cohen
Col
Cora
Cox
Crichton
Cuban
DOING
Dangerous
Dante
Darn
Development
Dig
Dnevnik
Dora
Due
Earlier
Elsa
Energy
Falls
Figure
Flying
Following
Foreman
Gaius
Gasps
Gemma
Goodman
Gossip
Gracie
Groans
HAS
Happens
Hardy
Hawk
Hayes
Hayley
Heavy
Holt
Honest
Honour
Hulk
Husband
Hyde
Iife
Im
Iot
Jerome
Josie
Joyce
Judgement
Kev
Lara
Lead
Leah
Lil
Lionel
Liv
Load
Lopez
Lorelai
Lorraine
MEAN
MIA
Manning
Marta
Maryland
Meat
Melinda
Metropolis
Mills
Moosa
Munich
Nell
Oklahoma
Omega
Opera
Orlando
Oswald
PD
PKK
Past
Patient
Patricia
Pepper
Piss
Polly
Powell
Prue
Pulse
Ramon
Raylan
Rehn
Republican
Request
Richmond
Ride
Rossi
Rough
Rufus
Sarajevo
Saving
Scarlett
Several
Siberia
Spartacus
Starbuck
Stokes
Story
Strip
Swan
Sweden
THESE
TOLD
Tadic
Thamud
Thea
Theo
Torah
Traffic
Trip
UM
Virgil
Walking
Wanda
Warden
Warm
Watching
Webber
Whereas
Witch
Zeke
Zoey
accompanied
ache
activate
advocate
aerial
altar
altitude
ambition
ant
architect
arrows
artistic
assemble
assumption
asteroid
automatically
avoided
badass
balloons
banking
barking
beautifully
bedtime
behaved
billionaire
blankets
boards
brake
breeze
bricks
bruising
buyers
camps
cane
carved
certified
challenged
chatter
churches
clears
committing
communist
confront
cons
constitutional
container
contractor
convenience
convent
copper
corps
cortex
cottage
covert
creator
crews
cripple
crook
crooked
crops
curiosity
curve
cuz
dancers
declaration
default
demise
descended
desist
despise
diapers
difficulties
ding
directed
disappearing
disco
discussions
ditched
doggie
dont
dragons
drunken
duel
employ
encountered
equality
evacuated
evidences
experiences
experimental
external
fax
fbi
fearing
feast
feeds
felony
fiancee
filter
firsthand
flooded
forehead
foreman
forensic
formally
formation
fortress
framed
fuse
gasoline
gently
glorify
governments
grapes
grenade
gringo
groans
grunting
guinea
haired
handcuffs
handicapped
harness
hating
hereafter
historic
hive
honors
hooking
horns
hotels
hull
humanitarian
identification
implementation
implying
import
improvement
incapable
incomplete
indicated
indicates
infant
infinite
initials
innit
installed
investigated
itch
jaw
jeez
jinns
journalists
jumps
keyboard
kisser
km
lacks
latte
leaking
lent
lifestyle
limp
listens
loans
magicians
meanwhile
mechanic
microscope
midst
mil
mug
mushroom
mushrooms
neural
obliged
occasionally
opinions
ordained
organize
oughta
overall
overload
overtime
overwhelmed
pan
peak
peasant
persecution
pharmacy
pinch
planting
politician
popcorn
potion
powered
premises
presently
prevented
prostitution
provisions
purchased
purity
racket
rains
recovering
refreshing
regain
remotely
repentance
requests
requirements
reserve
retribution
riddle
roar
rogue
rookie
rubbing
ruler
rum
safest
salute
sam
savage
saves
scratched
sentences
shack
shapes
shipping
sire
sis
smiles
snatch
solving
spends
static
stool
streams
strengthen
stretching
supernatural
supporters
supportive
sweetest
swinging
ta
talents
tattoos
tempt
texting
thinkin
tit
toothbrush
torturing
tox
traitors
tuck
underestimate
unemployment
unlock
vest
villagers
voodoo
voters
wager
warming
weep
whereabouts
whilst
wilt
wishing
woe
worldwide
wrongfully
##65
##67
##96
##ALK
##ANG
##EA
##ENT
##EST
##IFE
##IO
##ME
##NER
##NING
##OOL
##OP
##ORD
##REAT
##SD
##TAND
##UCK
##UST
##aah
##action
##ader
##ahn
##ailing
##aker
##aks
##ali
##ality
##amine
##amma
##anne
##ascist
##asiest
##aving
##bath
##bean
##bered
##block
##body
##borate
##brella
##bus
##cay
##ccup
##ceptable
##cist
##ckey
##cline
##clude
##coundrel
##cription
##cted
##ctopus
##datory
##dez
##doing
##driver
##dro
##dsey
##ducing
##dzic
##edo
##eld
##elescope
##ella
##eological
##ept
##erie
##erman
##ervative
##etch
##euver
##even
##far
##firmed
##flower
##fly
##frastructure
##fty
##ggie
##gnet
##gnition
##gt
##gulation
##gure
##hall
##hara
##helm
##here
##hest
##hit
##hl
##holes
##hrer
##hun
##iao
##ibbons
##icated
##icing
##icious
##ih
##ilateral
##ilia
##illery
##inator
##ind
##inja
##inson
##inted
##iology
##ioned
##ipal
##ird
##iste
##itious
##jun
##kuza
##lad
##lares
##lastic
##leading
##leo
##lica
##lical
##lining
##lize
##lph
##ltra
##ltrasound
##main
##making
##mers
##metry
##nar
##nard
##nate
##nating
##ncing
##nded
##ndor
##nds
##neliness
##nium
##nny
##nver
##oka
##oly
##onia
##oom
##ope
##opher
##orate
##orcism
##otent
##otto
##ouge
##ought
##ounded
##ours
##pable
##pation
##pending
##picy
##pm
##ponsor
##pp
##pped
##prints
##prise
##psy
##ptive
##pture
##quarters
##quently
##quid
##quis
##racks
##ract
##racy
##rady
##rams
##rangle
##rape
##rassed
##ravel
##reation
##redit
##rence
##rents
##rep
##rez
##rica
##riers
##ringe
##riot
##rities
##riving
##rmaid
##rne
##ronic
##rosity
##rround
##rst
##rted
##ruit
##runette
##rv
##rvellous
##sburg
##scal
##sert
##spense
##sse
##sson
##stein
##stery
##taboy
##taking
##ths
##tled
##tles
##tructing
##uated
##ucing
##udo
##uds
##udson
##uffer
##uffled
##ulative
##umed
##umont
##urial
##urier
##urly
##urn
##ushing
##using
##utants
##utation
##utive
##vage
##vard
##vid
##vine
##vising
##volve
##wat
##write
##yama
##ydra
##ync
##yote
##zia
##zzie
##£¬
##ée
##♪
180
1945
1997
2013
23rd
54
5th
64
80s
90s
ATM
Abbott
Abdullah
Adele
Aid
Aidan
Alive
Andrei
Andrews
Apollo
Axl
BABY
Ba
Baba
Base
Bastards
Benton
Berisha
Bianca
Bottoms
Breakfast
Brien
Bunny
Bus
Butters
Byron
Cairo
Caitlin
Called
Callie
Camera
Cape
Card
Cassandra
Cell
Certain
Chakotay
Champagne
Cheer
Cheese
Cloud
Community
Congrats
Corey
Corps
Create
Cry
DOES
Dalton
Dammit
Deacon
Delete
Detectives
Dev
Echo
Egyptian
Elijah
Engine
Engineering
Everett
Exalted
Ezra
FUCK
Fanny
Farm
Fernando
Fez
Financial
Fix
Folks
Frankenstein
Fund
GIRL
Galactica
Gerard
Goodness
Gospel
Gracious
HQ
Harbor
Harder
Hart
Hawkins
Herman
Hiding
Imperial
Ja
Jekyll
Jude
Knight
Ko
Koran
Koreans
Kristina
Laurel
Lavon
Leonardo
Linus
Lockhart
Lonnie
Lori
Luck
Lulu
MUCH
MUSIC
Mack
Mad
Mae
Management
Marian
Mehmet
Microsoft
Midnight
Milton
Ming
Motherfucker
Museum
Nam
Negro
Nigel
Norma
Norton
Obey
Ours
Owner
Palm
Pluto
Portuguese
Present
Punch
Qaeda
Queens
Rahl
Research
Revenge
Robbie
Rohan
Roland
SS
Sad
Salt
Saul
Schleswig
Señor
Shaitan
Sinclair
Sonya
Stacy
Sterling
Sully
Tanjug
Teach
Th
Thee
Theresa
Thinks
Tobias
Twitter
Tyson
Ukraine
Upon
Valerie
Various
Video
Whew
Wind
Yale
Yi
YouTube
Zone
abduction
absorb
abyss
accord
accusation
acquainted
acres
afflicted
affliction
airline
ambitious
amid
ankles
annoyed
apologizing
appalling
architecture
arson
aspect
attain
attempts
automobile
balanced
bass
befall
beggar
bidding
blink
bob
bouncing
boyfriends
brag
brat
breakthrough
bridges
bronze
buffalo
businesses
cannons
cardiac
cardinal
chalk
chemo
chin
classical
classy
cleaners
closure
coats
cocksucker
compassionate
concealed
consists
consumption
contempt
contractors
conviction
coughing
cracks
crow
cubs
cunning
curb
debut
define
delightful
delusional
designated
desired
devastated
diagnosed
dimensions
disappears
disbelief
dislike
disobey
disputed
distinctly
disturbance
diversion
donated
doo
doubted
drawings
dryer
dumping
dungeon
elder
eldest
elevated
eleven
employer
encouraged
enjoyment
enthusiasm
entities
errands
estimated
evacuation
expanded
expanding
expertise
exposure
extensive
extinct
eyewitness
faculty
fees
feminine
fiance
fiber
flashlight
fleeing
flood
flyer
foreigner
foreigners
forged
fraction
framework
french
frightening
froze
frustrating
fucks
fulfilling
gains
geez
genocide
gigantic
ginger
gorilla
grad
grieving
grudge
guaranteed
hassle
headmaster
heartless
heel
heights
hideous
homey
humour
hurricane
identities
idolaters
illegally
indefinitely
infirmary
inflicted
ing
inmate
ins
insecure
insensitive
inspiring
instructor
interpretation
interrupted
investing
isolation
judging
kidneys
knocks
knot
lace
lease
lighting
likeness
lions
locals
logs
longing
loo
lords
mafia
magnetic
mailbox
managers
managing
marching
markets
massacre
maternity
mathematics
medieval
merchandise
metre
miners
mining
mmm
mocking
monastery
monthly
murdering
mutt
napkin
nightclub
numb
nun
obtained
occupy
oceans
ofthe
onboard
operated
ordeal
organizations
overdose
ox
packs
pagans
parasite
pawn
paycheck
peculiar
pens
perceive
pets
phony
pony
potty
powerless
predators
prescribed
producing
professionals
promote
pronounced
proposition
prosper
publishing
pupil
pupils
puppets
purify
quitting
raccoon
railway
rascal
reader
realistic
realizing
realm
rebuild
recorder
refuses
relay
relieve
representation
rests
richest
ripping
rocking
runners
sailed
satisfy
savior
scanner
scoffs
scouts
scrub
seeks
select
seminar
senseless
sensible
separation
serum
sessions
sew
shallow
shells
shelves
shepherd
shoved
shutting
sidewalk
sinner
sitter
sized
skilled
slapped
slower
smelling
specially
specialty
starters
steals
steroids
subconscious
suing
sunk
sunny
supposedly
surprisingly
suspend
sustained
swan
symbols
sympathetic
syrup
targeted
tasty
teasing
temporal
tends
tenth
testified
throats
timeline
tis
tolerance
traditions
transparent
tribute
truce
turf
unarmed
unite
upsetting
veteran
villains
volunteered
wardrobe
weaker
weighs
welcomed
werewolf
wh
wherefore
wiping
withdrew
wont
##19
##64
##ANA
##ANKARA
##AS
##BER
##CU
##EARS
##EVER
##FUL
##HA
##HOSE
##KA
##KED
##NEW
##NNY
##OO
##ORY
##OSE
##OUR
##OVE
##PING
##TOP
##TT
##UY
##aan
##abby
##acial
##adays
##ades
##adium
##adow
##affles
##aku
##alcon
##ame
##arent
##arin
##ason
##ational
##atus
##aviar
##bability
##bers
##biotics
##brows
##bserving
##caster
##cating
##ccupation
##cely
##chedule
##chief
##ciano
##cier
##cine
##cise
##citing
##cope
##course
##cracy
##cryption
##ctics
##cturing
##dents
##distinct
##dos
##dress
##du
##eacock
##ecutive
##eded
##eigh
##elia
##eling
##elma
##emen
##ending
##enny
##eno
##ense
##ential
##eorgie
##erez
##ergies
##erguson
##erms
##erness
##erra
##error
##eted
##etrate
##evada
##fa
##fective
##fell
##ference
##ffa
##fie
##fill
##fing
##gly
##gne
##gues
##hard
##hare
##hat
##hee
##hers
##hile
##hunt
##hyme
##iaz
##icard
##ices
##icipating
##idable
##iding
##iera
##ignment
##igrant
##ii
##iking
##ilar
##ileen
##ilized
##illing
##imated
##imir
##imp
##inic
##ios
##ipped
##isa
##ishes
##itiated
##itions
##izard
##izer
##jacking
##jana
##kh
##lace
##lades
##lame
##lane
##lashes
##latoon
##lause
##lausible
##laza
##lda
##leine
##leton
##lid
##ligible
##lihood
##linch
##lind
##link
##lins
##litch
##lities
##litude
##loc
##lons
##loomy
##lora
##losure
##loth
##lphin
##lsen
##lysis
##mell
##mian
##minal
##minator
##mitted
##mmon
##mmons
##moke
##murf
##nas
##ndant
##nesome
##nings
##nna
##nounce
##nsky
##nties
##ntine
##nx
##nza
##ocal
##ocals
##ofy
##olve
##ombs
##oose
##operative
##oray
##ores
##orf
##orial
##ork
##pard
##patible
##pend
##pensate
##penter
##periencing
##pering
##phones
##pings
##pooky
##prano
##ptly
##puties
##quez
##quirrel
##rack
##rackers
##ragon
##ranium
##redictable
##reted
##rgent
##rgh
##riar
##rigade
##riggin
##riguez
##rion
##rising
##risp
##ritten
##rla
##rlour
##rnie
##rod
##rolled
##rout
##rrick
##rried
##rruption
##ryn
##say
##sby
##scend
##shop
##shore
##sical
##sil
##sity
##smond
##spect
##spel
##sposed
##stained
##ston
##su
##terol
##tick
##tional
##titles
##tment
##tring
##truder
##tts
##tuition
##ubba
##ubble
##ublic
##ubtedly
##uding
##uer
##ugar
##uild
##uity
##ulin
##ulous
##umi
##unds
##unned
##upees
##urge
##urley
##urrency
##urse
##ursing
##urst
##uthor
##utical
##uvenir
##uy
##vatore
##vatory
##vertible
##very
##vet
##vica
##vich
##vidently
##volving
##walker
##wallow
##war
##wes
##wide
##word
##written
##xual
##yang
##yin
##ynasty
##yndrome
##yne
##yon
##yping
##yra
##yssa
##yun
##zu
##zzard
##ë
##í
##ña
1970
1994
28th
53
6th
71
72
86
A1
ALWAYS
Ages
Agreement
Ahmed
Aires
Alberto
Andromeda
Aria
Arrow
Atlas
Au
Authority
BETTER
Baghdad
Barely
Beale
Block
Bowl
Brittany
Buenos
Buffalo
Bundy
Butler
CAR
Cambridge
Candace
Cartman
Castro
Celia
Chamber
Chocolate
Chung
Ciao
Clever
Cobb
Columbus
Cop
Cotton
Crowley
DOESN
Daniels
Daughter
Decker
Dillon
Dom
Donovan
Doo
EVER
Eating
Eduardo
Education
Emmett
Express
Facultad
Football
Forgot
Fourteen
Fritz
Genius
Godfather
Gong
Greeks
Greene
Guinea
HOME
Heidi
Hero
Higher
Hiro
Holiness
Hopkins
Hut
III
IMF
Iet
Ike
Independent
Indiana
Industries
Interior
Irving
I´m
Jang
Jazz
Jeannie
Jorge
Josef
Kensi
Kentucky
Kerry
Kirby
Klingon
Kung
LAUGHING
Lacey
Lajcak
Langley
Lilly
Lords
Losing
MacGyver
Madonna
Maestro
Matter
Mean
Mediterranean
Melody
Michigan
Military
Milosevic
Mimi
Mladic
Moreover
Multiple
NARRATOR
NBA
Native
Norm
Obama
Ocean
Pamela
Personally
Picture
Pictures
Pooja
Porsche
Portland
Pretend
Protector
Quahog
Rabbit
Rangers
Raoul
Representative
Rico
Robby
Roberto
Ruiz
Rule
SHOULD
Sanders
Santana
Scoffs
Seal
Secrets
Sector
Seeker
Sell
Seung
Sherry
Shirley
Silly
Singing
Sis
Sixteen
Skye
Slayer
Slovenia
Sons
Spread
Stalin
Stargate
Staying
Stevie
Taken
Tiny
Titus
Tripp
Truck
Unbelievers
Vampires
Vatican
Voices
Wan
Wants
Warner
Warsaw
Weapons
Window
Wing
Winners
Wood
Worlds
Wu
Yankees
Youth
abort
absorbed
academic
academy
accounting
addicted
admirable
adrenaline
affecting
aging
allegiance
allowance
alpha
altered
alternate
amends
analyst
anyhow
app
appearances
applications
arrests
assessment
asthma
attachment
avenge
awaiting
awarded
axe
backstage
bark
basics
battlefield
behaving
blog
bonding
bookstore
bosses
breaths
briefly
brunch
bulls
bunk
cages
calculations
cam
capabilities
careless
carrots
chapel
cheesy
chimney
choked
climbed
clinging
clinical
cloak
cocktails
collateral
collector
comedian
commanding
compelled
conclusions
conducting
considerate
consulting
containers
coolest
countless
countryside
courageous
cricket
critic
crushing
cuff
cyber
dawg
dealings
dearly
decency
decreed
deli
denies
deploy
deprived
designs
devotion
di
diaper
dimension
disclose
disguise
dishwasher
disk
docks
documented
donate
doughnuts
drained
drawers
dresser
drilling
drones
duet
dwelling
dynamite
elevators
embarrassment
enable
endings
endured
enhanced
enjoin
enjoined
es
escaping
espionage
estimate
exalted
exile
exits
exotic
export
exposing
factors
fainted
fairies
faked
fatigue
feathers
ferry
fiery
financing
findings
flexible
flourish
focusing
frat
frogs
frontier
fury
garments
generate
getaway
ghetto
glow
goodwill
grams
grandchildren
graveyard
grease
grind
guarantees
hail
halls
happiest
haunt
heritage
heroic
hides
homeland
hormone
hypocrite
ideals
imaging
immature
immigration
imminent
immortality
industrial
infect
injection
inquiry
install
instantly
interrogate
intriguing
introduction
jeep
jerking
jin
joe
joins
juvenile
karaoke
kite
knives
leash
manslaughter
martini
marvelous
matching
mattered
mature
mice
militia
misplaced
monks
moonlight
morality
mrs
mustache
mysteries
nah
neurological
ninety
nomination
northwest
notch
notified
offend
onion
operates
optimistic
organism
originated
overdue
panicked
paradox
parallel
parted
patiently
pearl
periods
perp
php
pilgrimage
pint
pisses
poo
pornography
posters
posts
preparations
primarily
printer
privately
privy
programming
programs
progressive
prominent
prospects
proudly
provoke
pyramid
qualities
rabbits
ranking
reactor
reconsider
references
refusing
regions
rehearsed
rehearsing
reinforcements
relaxing
remorse
renew
repaired
representative
retail
retarded
rethink
rider
righteously
ripe
risen
rival
robber
roller
rooster
routes
rural
sarcastic
sausage
scales
sensed
settings
severed
shalt
sharks
shaving
sheer
shithole
shook
shooters
shortcut
shouted
siblings
sided
simulation
singles
sinking
sixty
slack
sleepy
sliced
sloppy
sniff
sorcerer
sow
spear
spice
splitting
stakes
stamps
stationed
steep
stocks
strangled
strawberry
structures
struggled
strung
stumbled
stunning
sung
sunrise
superiors
surgical
survey
suspicions
taller
teeny
tens
tequila
thanking
thermal
thesis
threesome
thrill
tidy
toilets
token
tomato
tortoise
transporter
tray
trembling
triple
tripped
tummy
turmoil
unreasonable
utter
vacant
valued
velocity
verify
verse
violate
violating
vomiting
vouch
vous
warrants
weddings
whereof
wherewith
whispers
winners
wonderfully
workin
workout
yearbook
youths
zombies
##!
##"
###
##$
##%
##&
##'
##(
##)
##*
##+
##,
##-
##.
##/
##:
##;
##<
##=
##>
##?
##@
##[
##\
##]
##^
##_
##`
##{
##}
##~
##¡
##¢
##£
##¤
##¥
##§
##¨
##©
##ª
##¬
##¯
##°
##±
##²
##³
##´
##µ
##¶
##·
##¸
##¹
##º
##¼
##½
##¾
##¿
##À
##Á
##Â
##Ã
##Ä
##Å
##Æ
##Ç
##É
##Ê
##Ë
##Ì
##Í
##Î
##Ï
##Ð
##Ñ
##Ò
##Ó
##Ô
##Ö
##×
##Ø
##Ú
##Ü
##Ý
##Þ
##ß
##â
##ã
##ä
##å
##æ
##ç
##è
##ê
##ì
##î
##ï
##ð
##ñ
##ò
##ó
##ô
##õ
##ö
##÷
##ø
##ù
##ú
##û
##ü
##ý
##þ
##ÿ
##ć
##Č
##č
##ę
##ğ
##İ
##ı
##Ľ
##Ł
##ł
##ń
##ō
##œ
##Ř
##ř
##Ś
##Ş
##ş
##Š
##š
##ť
##ż
##ž
##ư
##Α
##Β
##Ε
##Η
##Ι
##Μ
##Ν
##Ο
##Τ
##Υ
##ί
##ν
##ο
##ρ
##υ
##φ
##Њ
##А
##В
##З
##И
##Й
##К
##М
##П
##Р
##С
##Х
##Э
##а
##б
##в
##г
##д
##е
##ж
##з
##и
##й
##к
##л
##м
##н
##о
##п
##р
##с
##т
##у
##х
##ц
##ч
##ш
##ь
##ю
##я
##฀
##ᵒ
##ḍ
##ṭ
##ạ
##ấ
## 
##‐
##‒
##–
##—
##―
##‘
##’
##‚
##“
##”
##•
##…
##′
##₣
##€
##ℓ
##™
##⅜
##−
##≤
##─
##★
##☆
##♥
##♫
##♬
##　
##う
##っ
##な
##の
##へ
##ほ
##る
##を
##エ
##シ
##ヌ
##ブ
##ル
##ー
##久
##孝
##川
##手
##暗
##真
##藤
##闇
##밚
##ﬁ
##ﬂ
##�
