[PAD]
[UNK]
[START]
[END]
!
"
#
$
%
&
'
(
)
*
+
,
-
.
/
0
1
2
3
4
5
6
7
8
9
:
;
<
=
>
?
@
A
B
C
D
E
F
G
H
I
J
K
L
M
N
O
P
Q
R
S
T
U
V
W
X
Y
Z
[
\
]
^
_
`
a
b
c
d
e
f
g
h
i
j
k
l
m
n
o
p
q
r
s
t
u
v
w
x
y
z
{
}
~
 
¡
¢
£
¤
§
©
ª
«
®
°
±
²
³
´
¶
º
¼
¿
Á
Â
Ã
Ä
Å
Æ
Ç
È
É
Í
Î
Ñ
Ö
Ø
Ü
Ý
ß
à
á
â
ã
ä
å
æ
ç
è
é
ê
ë
ì
í
î
ï
ð
ñ
ò
ó
ô
õ
ö
ø
ú
û
ü
ý
þ
ć
Č
č
đ
Ğ
ğ
İ
ı
ł
ń
Ş
ş
š
ţ
ž
Λ
Υ
α
ε
ι
ν
ο
ς
τ
φ
ό
А
В
З
И
Й
К
П
Р
С
Х
Э
а
б
в
г
д
е
ж
з
и
й
к
л
м
н
о
п
р
с
т
у
х
ц
ч
ш
ь
ю
я
Ә
ә
ا
ب
ح
خ
ر
س
ش
ص
ك
ل
م
ن
ه
و
ي
پ
ک
ی
ạ
ấ
–
—
‘
’
“
”
•
…
′
₣
€
ℓ
™
−
≤
─
♪
♫
エ
シ
ヌ
ブ
ル
ー
루
블
씨
엔
bir
ve
için
Bu
de
bu
##n
mi
da
var
ne
mı
değil
şey
çok
Bir
Ne
Ben
kadar
daha
Evet
ama
##lar
##m
##a
gibi
Hayır
##i
iyi
ki
##e
yok
##ler
Ama
ben
zaman
Tamam
olduğunu
Sen
bana
##k
sen
Ve
##ı
onu
Çok
##z
benim
ya
her
beni
mu
##ları
##r
##da
misin
sonra
seni
Bunu
önce
bunu
sana
nasıl
##leri
##de
senin
en
musun
hiç
Seni
olarak
##dan
burada
Onu
bile
##in
Bana
##s
##la
oldu
sadece
istiyorum
İyi
olan
##le
Beni
##den
Şimdi
Sana
ın
Her
biraz
Hadi
ile
Neden
Sadece
##ni
in
##t
öyle
güzel
##sin
böyle
##ya
##iz
Benim
##ki
##na
Bay
##u
##ın
##ne
Eğer
geri
olacak
Allah
şu
olur
Yani
##nı
##sın
##ma
##sı
ona
Peki
şeyi
##si
##li
gün
büyük
başka
neden
biri
iki
Senin
onun
Hey
##ız
tek
İşte
##lı
##l
şimdi
biliyorum
fazla
##ye
##uz
Burada
##dı
diye
doğru
Belki
Daha
şeyler
##di
adam
et
yardım
Çünkü
hayır
##nin
artık
##o
nin
Şu
gece
tamam
##dir
##y
gerek
hakkında
##yı
kötü
##yi
kim
Merhaba
olsun
yüzden
bak
##im
gerçekten
yeni
Lütfen
ol
hiçbir
##nın
izin
olabilir
Sanırım
iş
nın
demek
buraya
ederim
##me
son
biliyor
##yla
Hiç
oluyor
##dır
nerede
lütfen
geldi
##larını
göre
##lık
Tanrım
içinde
Biz
Ona
##sun
##an
##p
Nasıl
Bak
##um
##yle
vardı
##te
##ten
ver
efendim
Bayan
##tan
işte
ilk
##lerini
olmak
##sa
küçük
##du
Ya
orada
mısın
şekilde
Selam
Oh
değilim
çünkü
##ların
aynı
devam
mü
##ta
Öyle
size
##ti
##se
kendi
tüm
biz
Onun
yer
Artık
En
##nda
söyledi
##lerin
Sonra
Pekala
Biraz
Güzel
lazım
##mi
##tı
Kim
ister
##lik
onları
kız
yıl
ilgili
Bunun
##ce
##er
geliyor
##ım
karşı
dakika
bize
tam
an
etmek
##mı
##mış
##en
miyim
birlikte
istiyorsun
##ca
yani
bilmiyorum
olduğu
biliyorsun
bütün
##yor
##on
un
söyle
istemiyorum
dan
##h
gerekiyor
##un
dilerim
dostum
bizim
olmalı
asla
bunun
##ken
ediyorum
bakalım
evet
##lara
para
##ü
##miş
yere
Gerçekten
onlar
önemli
Tabii
##d
yoksa
zaten
tekrar
bizi
sizi
sorun
##dım
saat
##ini
##nde
gel
##lere
uzun
##ydı
hemen
tane
olmaz
Siz
harika
yapmak
siz
##mak
Başka
anda
işe
kimse
işi
kişi
Haydi
çocuk
##yım
Aslında
zorunda
##ş
##ydi
##san
Bence
sizin
İki
Buraya
Bütün
istiyor
gerçek
##mız
dedi
Tüm
pek
##ndan
hala
Doğru
Harika
Sorun
zor
etti
eğer
yapıyorsun
##tir
##zi
nedir
yerde
görmek
Hiçbir
emin
kez
misiniz
##ğı
üç
kadın
belki
git
şunu
falan
##nden
Böyle
Tanrı
##dim
seviyorum
##tır
Onlar
söz
kabul
##mek
edin
vardır
##miz
eve
hafta
##ği
ye
gereken
ediyor
birkaç
Anne
onlara
hep
##yim
Orada
hadi
az
##ını
Bugün
değildi
Size
tarafından
##muş
kaç
beri
##dum
buradan
benimle
Özür
ihtiyacım
##man
10
eski
Baba
al
Buna
insan
veya
den
onunla
buna
##ine
Fakat
musunuz
##lu
insanlar
sanırım
seninle
Dur
##g
ise
gitti
dedim
kontrol
##dur
hazır
Tam
çocuklar
Üzgünüm
gördüm
üzgünüm
##sen
Dr
yine
olmuş
##maya
##ar
haber
hoş
la
Hemen
Onları
##meye
Elbette
Pekâlâ
kendini
yerine
##zı
##sını
diğer
##larına
teşekkürler
##ra
birini
##nız
değilsin
üzerinde
Biliyorum
karar
Yeni
yi
Tek
yı
ettim
dur
bırak
##ri
etme
Herkes
Demek
olması
Yine
Geri
olmadığını
yol
Seninle
gidiyor
yaptım
##ğını
Ayrıca
teşekkür
Burası
benden
neler
yüzünden
istediğim
Son
günü
gidip
yalan
herkes
özel
bugün
##din
baba
olduğumu
onların
konusunda
nefret
##siz
##lığı
anne
Aman
boyunca
olursa
##ci
##ç
geç
oraya
##lardan
olsa
##cı
nun
erkek
##lerine
##dın
dışarı
##sini
Gel
yanlış
farklı
Ah
ay
sahip
Nereye
gidelim
##lerden
##siniz
Sizi
##f
Büyük
yemek
özür
gelen
Kesinlikle
yalnız
İlk
yaptın
Lanet
aldım
bazı
Yok
mutlu
açık
tatlım
##acak
dolar
eder
akşam
görünüyor
yoktu
yanında
tabii
beraber
halde
##cak
nereden
##sam
Benimle
yapıyor
##tım
Bize
Bunlar
Onunla
yaptı
Şey
sabah
hâlâ
ondan
Bekle
arasında
oldum
söyledim
Hepsi
başına
almak
azından
birşey
istedim
##sınız
##tim
Teşekkürler
hepsi
##re
Umarım
Bizi
üzerine
Doktor
senden
aslında
Efendim
daki
işin
peki
##ek
adamı
gitmek
yap
##larının
##ik
süre
yolu
fark
le
Kendi
bundan
Al
öldü
20
zamanı
verdi
miyiz
şeyleri
altında
##et
Teşekkür
kolay
Yarın
çıktı
şeyin
Kimse
olun
##niz
##ak
Neler
geldim
şeye
Bizim
bunlar
konuşmak
##yorum
Tom
be
konuda
Jack
bekle
düşünüyorsun
su
##nu
Hala
John
varsa
ta
##ına
##daki
söylüyor
##ün
##ir
##mda
takip
eminim
söylemek
##sem
##yız
değildir
ancak
tamamen
sürü
Dinle
düşünüyorum
Bırak
ha
Nerede
Onlara
hem
buldum
çalışıyorum
##luk
Bundan
Vay
fakat
##at
##za
Aynı
saniye
##sak
##yken
olduğuna
ait
gelecek
gelip
##yın
##ğini
dinle
oldukça
kaldı
##larla
Dün
Kahretsin
Yoksa
Adam
##sız
##larda
Küçük
eden
yeniden
düşündüm
ortaya
Üç
çalışıyor
##ıp
merak
polis
dersin
kal
##al
adamın
##abilir
Sizin
uzak
bitti
beş
dışında
##acağım
aptal
arada
##el
Niye
ara
Gerçek
##lerle
kesinlikle
zamanda
##ip
##ıyor
##ie
genç
yeter
içeri
olacağını
yardımcı
başladı
yaptığını
##lü
##ğın
Yardım
##tik
##yiz
lanet
##lerinin
durumda
tür
durum
uygun
sanmıyorum
Sence
gördün
olmayacak
cevap
göz
yakın
##ması
##sine
duydum
gidiyorum
30
Hem
kendimi
##alım
##lan
etmeye
hızlı
zarar
üzere
sonunda
##larından
##men
##sına
Birkaç
ihtiyacı
yolunda
##lerde
000
birisi
##ır
gelir
olacağım
##deki
geldin
sanıyordum
sağ
Git
edecek
nereye
##ze
ev
soru
bunları
yapma
te
##liği
olmadan
görüşürüz
##v
güçlü
olmayan
olup
##ecek
olurdu
verin
Senden
dört
İçeri
dolu
##larında
Sağ
yoktur
##tin
Ancak
şöyle
dikkat
milyon
verdim
arkadaşım
New
insanların
##yu
Sakin
evde
Önemli
##dik
##su
bin
15
##iyor
##miyor
##us
Kız
adamım
herhangi
##nun
##inde
bakın
yapacağım
bence
Eminim
##lerinden
##mem
aldı
Babam
çocuğu
Emin
Eve
bilir
##lama
##mez
garip
terk
Benden
burası
##ka
diyorsun
içine
sanki
gerektiğini
olmadı
Günaydın
Sam
yeri
Öyleyse
##Å
12
hareket
Devam
##çi
Tekrar
##mesi
fikir
veriyorum
##mam
hissediyorum
kendine
niye
araba
kere
sevindim
adı
##ton
istediğini
iyiyim
vermek
Eski
ediyorsun
varmış
##yorsun
rahat
##sek
ateş
##c
##mayı
hak
##ğin
hayal
Dünya
yarın
Bilmiyorum
##mu
Uzun
ihtiyacımız
sensin
çabuk
##meyi
Pek
olamaz
yapmaya
mısınız
##lerinde
Michael
kesin
##dun
##sunuz
işler
Annem
hayatta
sanıyorsun
tan
Geçen
acı
geçen
ihtiyacın
##0
istersen
##mızı
bilmek
yapacağız
##tu
evlat
##son
isterim
komik
##imi
adım
kısa
Tabi
miydi
on
söyledin
doktor
hayat
kan
sefer
##ğım
Siktir
istedi
oğlum
##larım
Biri
Diğer
gidiyorsun
Amerika
gizli
Bakın
geçti
yapıyorum
##dık
Kötü
##inin
Pardon
olay
##ebilir
kızı
Çocuklar
##lısın
biliyordum
düşünüyor
##elim
Sanki
bayan
biliyoruz
herif
##yan
alıp
İnsanlar
##çe
bebeğim
ciddi
kardeşim
##eceğim
birine
yüksek
Hazır
Kes
altı
diyorum
yapar
George
oyun
çeneni
çıkar
Hangi
bende
dünya
zamandır
50
Polis
birinin
hayatım
neyse
##mıyor
boş
na
Affedersiniz
dolayı
gidiyoruz
##il
##Ä±
Buradan
Joe
dair
gelmiş
##A
##bilir
##rı
yaptığı
##b
##ch
kimin
##yse
##üz
##ımı
##sanız
##arak
Frank
Noel
insanları
olsaydı
##nızı
##ran
##tın
Asla
benziyor
dans
el
ettin
yaşında
##lerim
##cek
##is
hata
silah
##sel
Bazen
Charlie
York
ikinci
mıydı
verir
canım
neydi
bebek
dedin
inanamıyorum
yapacak
##acağız
##min
Hâlâ
##ğa
aldın
yeterince
yeterli
yüz
##sında
##üm
Biliyor
mümkün
Hep
Mike
Sakın
##ck
##ley
##lıyor
##ça
bağlı
dek
olmasını
##maz
##ğim
Ey
Kendini
mükemmel
tatlı
bilgi
diyor
sürekli
tuhaf
Önce
##ında
Dikkat
Onların
yıldır
##ladı
Ondan
sahibi
Bazı
Muhtemelen
buldun
getir
neredeyse
Şuna
Az
rahatsız
gelin
henüz
Yapma
##cağım
##lardı
##yacağım
vakit
önünde
acaba
hangi
istediğin
Keşke
rağmen
içki
olma
##izi
Henüz
almaya
defa
dön
sende
yaşlı
üstüne
söylüyorum
belli
görünüyorsun
telefon
##Ã
ele
olacaksın
##5
Zaten
şans
##am
korkunç
##cu
##mizi
##sün
oradan
parayı
##sinde
##ymiş
Merak
bilirsin
hayatını
olduğum
##ayım
##mdan
David
Kaç
Oraya
bakma
memnun
tahmin
şeyden
aç
yanına
##ur
##yacak
hava
yola
##or
##ıcı
yapacaksın
##mıyorum
Anlıyorum
hasta
##eyim
Çabuk
##ro
berbat
##ge
100
##acağını
##ceğim
##x
Peter
arkadaş
edip
parçası
##cağız
Böylece
galiba
savaş
söylüyorsun
##mın
##yen
Nereden
aile
erken
11
at
onlardan
##eceğiz
##ızı
Sonunda
##lığa
Tatlım
değiliz
olmaya
##lıyız
##ğu
seviyor
ölüm
İşe
##Ä
Mutlu
dün
gerekir
##duk
##ng
Avrupa
Neyse
adına
kendisi
sebep
aşağı
##va
##ünü
babam
evine
istemiyor
normal
yapan
ölü
##der
##madan
##yin
anlıyorum
bulduk
durumu
edeceğim
elbette
olduğundan
##lanmış
##rma
Kaptan
geliyorum
görüyorum
olduğun
Özel
##2
##rim
Adı
Haklısın
zamanlar
##3
##ymış
geceler
istiyoruz
Görüşürüz
baş
##1
Beş
Saat
hatırlıyor
##diği
##ydım
00
mesaj
yerinde
bizimle
olmalısın
##st
ufak
##ysa
##ış
arkadaşı
istiyorsan
yaparım
##ğe
Hatta
sebebi
basit
tercih
yapmam
Nasılsın
görmeye
söyleme
yapalım
Kusura
tehlikeli
yemeği
##4
##yum
##ğında
Başkan
adını
lan
sakın
üstünde
##lıyım
##suz
alır
the
Alo
Kapa
Yanlış
beyler
gerekiyordu
##es
Henry
Söz
alabilir
güç
teklif
altına
teki
Biliyorsun
bulmak
olmasın
tanıyor
öldürmek
##leme
Söyle
The
evi
işim
suç
##be
##lamak
##unu
##ının
Olmaz
bekliyor
bilmiyor
deki
kes
sonraki
yalnızca
Şunu
##nizi
Anlaşıldı
adama
davet
fikrim
iyilik
köpek
yakında
yapmış
##iyorum
Kendine
sakin
seks
##lisin
anladım
beyaz
deli
güle
nedeni
ortak
##rin
dışarıda
hepsini
ikna
kapıyı
sonu
yu
Mary
Neredeyse
Olamaz
Para
ana
##tü
##çı
görüyor
hale
Gidip
annem
aşkına
geldik
teslim
Hepimiz
bilmiyordum
geldiniz
işini
millet
olmayı
ses
söyleyeyim
De
Neyi
düşün
etmiş
iç
kalan
##lerimi
biriyle
olanlar
söylemiştim
##bi
##ından
Görünüşe
alıyor
duydun
istiyorsunuz
##E
##I
##rım
##ğü
alacağım
güvenlik
kalmak
kitap
kızlar
yapabilirim
##7
##len
Yalnız
geldiğini
yaşıyor
##w
##yoruz
Baban
dünyanın
verici
bırakın
doğum
İş
Aynen
birden
derece
elde
getirdim
iyisi
olası
Şaka
##lim
##rmak
Bende
Bunları
Sayın
anlamına
bahsediyorsun
canına
cinayet
film
herşeyi
vereceğim
Çocuk
##mde
##ık
temiz
zorundayım
şarkı
##6
##ba
##ey
sizinle
##gi
##sana
Paul
ilginç
insanlara
kendilerine
tabi
çalışıyorsun
##ası
##dü
##dür
##larımı
##mıza
Kendimi
arkadaşın
sıcak
##amaz
gitsin
isim
istemedim
olman
tut
yapamam
##up
haklı
olabilirim
##masını
ALLAH
##diğini
##dığı
##dığını
##em
##inden
##rdı
18
Ciddi
aşık
gerçeği
günler
parti
yapmadım
yemin
##ha
James
veriyor
çek
önceki
##lığın
Dostum
hepimiz
numara
çık
##9
Ha
Yemek
konuşma
muhtemelen
yedi
yolunu
##abilirim
Affedersin
duruyor
ettiğini
haline
ifade
konu
kızım
sert
Annen
demektir
farkında
sıra
##ke
##zde
Acele
almış
babası
böylece
ettik
sene
##S
##müş
##rak
Galiba
anlamı
buradayım
dahil
edebilir
##dy
##medi
##tık
##ydim
bakayım
parça
##sinin
Yalan
edeyim
yla
çeşit
İsa
##8
##muz
Max
birçok
güvenli
kadının
soğuk
tarafa
tehdit
yukarı
##liğe
hatırlıyorum
satın
uyuşturucu
yerini
##ıyorum
Amerikan
Tamamdır
gidecek
hayatı
olmam
vakti
yaptığın
##mesini
Güle
dava
eğlenceli
işleri
kahve
kızın
oldun
öldürdü
##abilirsin
##nan
##ret
16
AB
bazen
edildi
gider
kaldım
##liyiz
##ren
##rken
25
Anladım
adamlar
düşünmüştüm
geldiğinde
gerekli
olmadığı
severim
sürece
##kları
##meden
Alex
ağır
değer
istemem
kalmış
kimsenin
##lım
Jimmy
alacak
alın
dediler
gittim
muydu
resmi
söylemişti
söylemiştin
##amam
aşk
koca
mıyım
pislik
yoldan
##lardır
##madım
##uyor
##yon
Durun
FBI
canlı
döndü
ediyoruz
gayet
olayı
zamanlarda
##amazsın
##it
##larımız
##nmış
Yeter
görmedim
isterdim
isteyen
kayıp
olacağız
yapabilir
##C
##eri
##sal
Hoşça
düşünüyordum
gelmek
yapıyoruz
##ah
##sının
bunların
gurur
katil
yavaş
##vi
Birlikte
Değil
bi
nefes
türlü
verme
çalışan
##ay
##lak
##larıyla
##medim
Ateş
elinde
gerekecek
herhalde
sona
##luğu
##ner
##nuz
araya
derler
gidin
yaptık
çoktan
40
anlat
dünyada
giden
gücü
kalın
neyin
yapmayı
öğrenmek
##ing
##lerdi
##ve
Aptal
Olur
bayım
gideceğim
yazık
yaşamak
zorundasın
##by
Ray
alan
haydi
koy
##arı
##nıyor
##ğunu
Otur
başıma
kelime
sence
##esi
##lük
Harry
On
duymak
etmez
gibiydi
kalacak
olanı
ten
verecek
çocukları
##ana
Mükemmel
günün
oda
sırada
##landı
##ll
Bununla
Danny
gösteriyor
hatta
kimseye
sesini
taraftan
unutma
yerden
çıkıyor
##ga
Tıpkı
onlarla
takım
tanıyorum
##ize
##ladım
##mıyorsun
##ydu
Dört
Jim
gitmem
herkesin
ikisi
ilgisi
kavga
##ktan
##seniz
##zin
24
Birisi
serbest
sık
##amıyorum
##iş
##liyor
##miyorum
14
Fazla
bizden
dışı
itiraf
of
telefonu
ölmüş
şehir
##aya
Ajan
Dedektif
alıyorum
dikkatli
muhteşem
verdin
Nick
fena
sizden
tanrım
zengin
üst
şüphe
##ina
##ter
Aferin
Jane
Richard
bulunan
bununla
dürüst
görev
istediğimi
kendim
sorunu
##cağını
##sene
##yıp
Nedir
Oldukça
edelim
hanımefendi
ikiniz
ileri
kaybettim
yoluna
ziyaret
##eceğini
##ia
##ru
##ry
##ğinde
Sarah
Su
Tebrikler
edebilirim
hoşuma
saygı
yaptığım
çalıştım
İkinci
##layan
##manın
##nü
Adım
adamla
arıyor
gelince
haberi
iptal
verdiği
çıkan
##dığın
##j
budur
iyidir
##ger
##uk
##una
Asıl
Ee
Hepsini
arıyorum
girdi
##lerimiz
Paris
Tony
Yakında
buydu
ettiği
geleni
kalmadı
olmasına
##iyle
##manı
Erkek
Geç
Hoş
baban
başarılı
şanslar
##K
##ceğini
##ğine
17
biliyorsunuz
gelmedi
inanıyorum
korumak
suçlu
sırasında
##kleri
##lamaya
Altı
General
Zaman
anlamıyorum
göster
ikimiz
istiyorlar
yaklaşık
##as
Dikkatli
dua
gelmiyor
grup
söyler
süredir
yana
çoğu
çıkmak
##imiz
##lerdir
##tür
13
Bill
Kimin
edersin
istersin
mal
olduğunda
Gördün
duyuyorum
gittiğini
haklısın
inanılmaz
söyleyeceğim
veren
yapıyorsunuz
##ham
##iye
##ly
##miyorsun
##ty
gerekirse
miydin
olurum
ortadan
sever
umurumda
yolda
İnsan
##meni
##mıştım
##sü
##ğına
aşırı
buradasın
orospu
veririm
yle
yılında
çift
##emez
##gan
##ver
Tommy
etmeyi
tarafta
şaka
##land
Aç
buldu
gitmiş
hediye
kısmı
öyleyse
##ceğiz
##diğim
##dığım
##miştim
Boş
Dışarı
Sende
anladın
baksana
kadını
kulak
olacaktır
##yecek
##ılacak
Beyler
ettiler
getirdi
hikaye
konusu
nde
olduğunuzu
##om
##ür
Kadın
Zavallı
and
aradı
kendime
odasında
saçma
çocuğun
çıkıp
##ağı
##düm
##os
Mark
Sevgili
ahbap
bekliyorum
bok
destek
##ör
##ılmış
Tamamen
alayım
ayrıca
değiller
gördüğüm
göstermek
sonsuza
söylediler
çıkmış
##lenmiş
##lığını
##nıza
##pe
##ut
##üp
Albay
Jake
Kapıyı
burda
can
muyum
sayılmaz
öldürmeye
##T
##lemek
##mü
##rt
##yet
##yorlar
##zın
Kosova
başladım
muydun
olduklarını
otur
yazıyor
İnsanların
##ayı
##meyecek
Bilirsin
Gece
Gidelim
Neye
Steve
acele
birşeyler
etmeyin
kapalı
kimseyi
müzik
sanmıştım
sayesinde
umarım
##abilecek
##ildi
##larınızı
anlaşma
başlıyor
götür
istediği
olduğumuzu
olsam
##mıştı
##to
Kabul
Yüzbaşı
bakmayın
demiştim
dönüp
kat
metre
##acaksın
##madı
##melisin
Bob
Cidden
Yapamam
ararım
bira
iman
Özellikle
##yabilir
##üne
Anladın
Bunların
Eddie
adamları
aptalca
bilmiyorsun
güvende
hey
kendisine
mantıklı
##liyim
##sından
Yemin
aldık
benzer
ediyorlar
sekiz
sesi
silahı
çalışma
Dışarıda
Herhangi
annen
yaşam
şansı
##sinden
##tur
DNA
Kral
akşamlar
bul
değerli
ederiz
yapman
yaptığımı
yapılan
yaramaz
yarım
##ad
##kan
##ster
##şe
Bayanlar
Chris
annesi
##M
##co
##lacak
##mişti
##ndaki
##nün
arasındaki
görmüş
ilaç
kişinin
Çık
##N
##alı
##go
##zdan
Bakalım
Daniel
Hani
Hayatım
Savaş
arıyorsun
asıl
bıraktı
söyleyin
yıllar
İyiyim
##hi
##ko
##kten
Bitti
Ev
Neyin
cehenneme
edenler
kurtarmak
olabileceğini
sevdim
şanslı
##cü
##ılıyor
Hava
Kevin
Sabah
Sessiz
ders
edeceğiz
olanları
oğlu
siyah
zorundayız
##diğin
##ğımı
##ıldı
Kuzey
Yalnızca
alırım
der
değildim
değilse
geçiyor
girip
günde
hayatımı
kadarıyla
yarısı
zeki
##ld
##leriyle
##racak
##ıma
Billy
Sürekli
anlama
kişiyi
olabilirsin
olmuyor
oturup
sorumlu
çalışmak
çekil
öldürdün
##ime
##ji
##liğini
##rdım
##tum
##yacağız
##yeceğim
Robert
arkasında
ayak
başa
geçmiş
işten
kadınlar
selam
yada
yaz
zamandan
çalışıyoruz
##ebilirsin
##menin
##yü
El
alt
altın
birer
dalga
kalsın
kimsin
nda
##D
##az
##lanan
##ldı
##rs
ABD
Bebek
Oğlum
Ryan
arka
bildiğim
diyeceğim
fazlasını
ihtiyaç
insanın
işine
kanıt
karanlık
merhaba
patron
süper
zamana
Ölüm
çalış
şeylerin
##abiliriz
##cık
##diniz
##mize
##mizin
##rdi
Eskiden
Londra
aradım
düzgün
geriye
kalp
konuyu
kırmızı
mıyız
##do
##ene
##han
##iyorsun
19
arayıp
ardından
duyuyor
hayatın
konuştum
konuşuyor
olmuştu
sigara
vereyim
çalıştı
##caksın
##layacak
##lıyorum
##zden
##ıyorsun
Bobby
Güvenlik
acil
buradaki
değilmiş
konuşabilir
okula
polisi
sıkı
yaşayan
önceden
##iniz
##lendi
##muyor
Evde
Hayat
Jerry
biriydi
etmem
herkese
hizmet
söylerim
verdik
yanımda
yıllık
##gin
##lin
##memiz
##tti
##ımız
Bırakın
Sizinle
ayrı
cidden
gerekmiyor
güneş
hayvan
iyice
kapı
okul
oyunu
Dalga
Martin
Will
bulmaya
deniz
evinde
salak
seçim
tutmak
##amayız
##ber
##eye
##ford
##ul
Babamın
Los
babamın
baylar
biliyordu
bilmem
numarası
park
seksi
yapayım
İzin
##P
##larımızı
##zda
##zu
##ğum
Acaba
Kesin
Telefon
arabayı
bıraktım
iyisini
kaza
mutlaka
sandım
yapıyorlar
ün
ışık
##ebilirim
##emem
##liğin
##lmış
##rlar
Amy
Buradaki
Güney
Kate
Yavaş
asker
bilim
istedin
iğrenç
konuşmaya
sağlam
sevgili
söylemedin
Ä±
İşin
##bilirim
##mden
##ndı
##ğimi
##ıza
Anna
Olay
evin
gelmez
güzeldi
hariç
mektup
sessiz
tıpkı
yemeğe
zamanında
##diler
##lığına
##mızın
Herşey
Jason
durun
gÃ
hapse
hoşuna
numaralı
sorunun
##ilmiş
##ist
##seydi
##ğımız
Bebeğim
Profesör
bayağı
bilen
hissettim
itibaren
iyiydi
kafa
karşılık
sonuna
sıradan
önüne
##kin
##umu
##İ
##ıyla
Alman
Beyaz
Cevap
Hepiniz
Yürü
bol
elini
gelebilir
gördü
olacaktı
olursun
yerin
zamanki
özellikle
Şüphesiz
##amıyor
##erek
##klarını
##madın
##mızda
##yalım
Angeles
Musa
Ver
dünyaya
ederek
epey
güven
işaret
mavi
parmak
söylemedim
test
yapıp
##ol
Baksana
San
Scott
bulundu
bırakıp
engel
etmiyor
getirin
hakkı
herşey
inkar
tarafı
yerlerde
İkimiz
##bilecek
##malı
##meli
##van
##ılır
Charles
Herkesin
Kan
başında
geleceğim
ndan
plan
çıkarmak
ön
şeydi
##malıyız
##no
03
ailesi
arama
bilmiyoruz
edilmiş
ettiğin
izi
lar
uzakta
yatak
üzgün
##eti
##lüğü
Onlardan
aramızda
gördünüz
ismi
kendin
kilo
neye
tavsiye
yakışıklı
öğrendim
İçinde
Şef
şeyim
##liğine
##lıkla
500
Bizimle
Johnny
Kendisi
Lee
Orası
Walter
başı
gÃ¼nÃ¼
herkesi
kenara
kişisel
sahte
sor
yaparken
yaparsın
öylece
İngiliz
İstediğin
şimdiye
##ez
##layıp
##nd
##nle
##î
Gelecek
Genç
alalım
birileri
düştü
gerekirdi
intihar
kurban
nesi
oluruz
##ara
##ceği
##ebilecek
##kiler
##masına
##rmaya
##ydin
Ana
Bilmem
Eric
Parayı
askeri
deme
dünyayı
fikrin
fırsat
gir
insanı
kara
kokuyor
söylemiş
sıkıcı
sınıf
veremem
Çin
şarap
##cağı
##nize
##ny
##per
Araba
Hayatta
edici
ettiğim
gideceğiz
gitme
hakkındaki
havaya
odada
piç
resim
vermiş
yapacağımı
yapmamı
zavallı
##dılar
##klerini
##malısın
##ok
##rler
##teki
##tte
##yarak
Sırbistan
Yüce
anlıyor
balık
doğal
edemem
gibisin
korkuyorum
neyi
parasını
peşinde
rapor
söyleyecek
##ndeki
##nen
##rıyor
Birini
Endişelenme
Niçin
avukat
baştan
burayı
etmesi
fazlası
kalır
yapabilirsin
çalışıyordum
çıplak
##isi
##ledi
##lerimizi
##lo
##ümü
##şi
Afrika
Muhteşem
cinsel
daima
derken
enerji
kalıyor
zevk
##L
##anlar
##ebiliriz
##emezsin
##iyet
##mle
##rd
05
200
Brian
attı
evden
geldiği
gittin
iddia
km
olmaktan
orası
oynamak
ruh
Çavuş
İkiniz
##dar
##lerinizi
##meliyim
##nla
##syon
##tmek
##ğun
06
Adamın
Cuma
Don
Hoşçakal
Neredesin
Rachel
Tahmin
derin
geçiyorsun
gönderdi
hallederim
inşa
odasına
suçu
söylemem
tedavi
unuttum
yapmamız
yarar
yiyecek
yüzde
##amadım
##rmek
##yayım
Dan
Doğrusu
Mr
bakmak
bekleyin
bunlardan
girecek
görünce
istemez
kızgın
olmanı
vermeye
yapılmış
##acağı
##larınız
##lılar
##ste
##tmak
Emma
Kalk
Yeterince
Zor
adil
erkekler
fotoğraf
kendisini
konuş
olmuştur
sevdiğim
yabancı
çalıştığını
şüphesiz
##üyor
##ğimiz
21
Arthur
Fransa
Luke
Pazar
Peder
Teğmen
Yeniden
alma
başlayalım
devlet
hazırım
içeride
kendilerini
konuşalım
saatte
yardıma
çekici
##if
##lanıyor
##rini
Claire
Güneş
boşa
dönmek
idare
mesele
mutluyum
mücadele
nedenle
resmen
sevdiğini
söylediğini
ters
vermeyeceğim
yaparız
önemi
##anı
##ed
##layın
##leyen
##leşme
##meliyiz
##mla
##yordu
##ğ
##şı
Gizli
Kur
Mesela
Ted
demiştin
gören
ihanet
kitabı
kullanmak
peşinden
saldırı
sorabilir
söylemeye
sürpriz
önceydi
İngiltere
##mişsin
##rda
22
Memnun
adında
ceset
dene
diyorlar
söylediği
sözü
yapacağını
yapın
çocukların
çıkacak
özgür
özledim
ünlü
Şöyle
şükür
##dınız
##ire
##leyin
##memi
##yerek
##ılan
Andy
Patron
Pete
demişti
elinden
getirmek
gibidir
iz
kalma
kızla
ortada
sistemi
uçak
Çek
##meyeceğim
##ney
##rum
##ğünü
Acil
Akşam
Chuck
Lisa
Park
aynen
açın
başlıyoruz
dinleyin
döneceğim
ediyorsunuz
elimden
gemi
imkansız
inanmıyorum
istemiştim
içindeki
olmanın
sarhoş
Şimdiye
şeylere
şirketi
##bileceğini
##bı
##ja
##mamı
##mayın
##meleri
##nce
04
Doğu
Nefes
bakıyorsun
baskı
filmi
gecesi
geleceğini
iyisin
işimiz
konuşuyorsun
sormak
sürdü
ödeme
üzerinden
İmdat
şeylerden
şuna
##amayacak
##lamış
##ndi
##ot
##sıyla
Anlamıyorum
Annie
Roma
apaçık
buralarda
buz
filan
gideyim
nasılsın
saçmalık
suyu
tutun
yaşındaki
ülke
üçüncü
##bilmek
##gim
##met
##rın
##tma
##ınız
Afedersiniz
Baş
Birazdan
Birçok
Buradayım
Clark
Hasta
Herkese
Kimsin
Sağol
Yargıç
Yaşlı
ailem
aklıma
bilirim
düşündün
geçirdim
gözlerini
hamile
kapat
meselesi
meşgul
nasıldı
rol
sağlık
umut
İç
Şuraya
##ere
##ram
##yabilirim
Eee
Gelin
Komik
Kyle
baktım
beyin
bilemiyorum
birisin
buradayız
dokuz
edeceksin
girmek
istiyordum
içinden
kalk
kısmını
sanıyor
tamir
yapamazsın
yaptınız
İnan
##ks
##ov
##sh
##tığı
##unun
Binbaşı
Fransız
Geliyorum
Kardeşim
babanın
başkası
düşünüyorsunuz
geçirmek
idi
kardeşi
karısı
söylediğim
tanesi
tehlikeye
yolculuk
çalışıyordu
çekilin
ötürü
şeytan
##fa
##kın
##meyen
##rır
##yeceğini
##yip
##ğunda
Dave
Defol
Emily
Kahve
Louis
Sean
Uh
Yukarı
başından
duygusal
kahraman
konuşmayı
kıza
olduk
olduğumuz
söyleyen
sır
yan
yapabiliriz
yılda
üstün
Şerif
Şimdilik
şeker
##amadı
##ceksin
##ici
##malıyım
Aşk
Burayı
Majesteleri
bekliyorsun
denen
düşünmüyorum
evli
eğitim
göremiyorum
inanıyor
not
odası
pis
planı
söylemedi
vurdu
yürü
##bet
##ee
##müz
##seydim
##th
##unda
Alan
Ay
Buyurun
Kara
Ki
Tim
anlattı
bomba
etrafında
gelirse
karışık
konuşuruz
masum
sevgilim
sinir
varken
zayıf
çekmek
##anın
##kar
##medin
##rek
##yorsunuz
23
60
Bayım
Bazıları
Dans
Geliyor
Kontrol
Kırmızı
Kızlar
Pazartesi
araştırma
açığa
bağlantı
delil
dönüyor
ediyordum
giriş
hastaneye
muyuz
olabilirdi
sosyal
tespit
örnek
##arım
##bo
##cik
##eni
##irim
##layacağım
##lly
##lma
##lmiş
##rk
##ven
Alice
Açık
Carter
Kulağa
Larry
Madem
Nasılsınız
TV
Yo
doğrusu
ediyordu
etmelisin
etmeliyiz
görüşmek
hatam
hepiniz
kafayı
takdir
vermiyor
yanı
çay
şüpheli
##eceği
##enin
##lanma
##mayacak
##pa
##yelim
Kitap
Olabilir
azap
bakıyorum
bulmuş
degil
dönün
eline
emri
ihtimalle
kişiler
ler
olmalıyım
olsaydım
söylüyorlar
vermem
yaptıkları
yaptıklarını
yeşil
öldürecek
İstersen
ım
##ard
##eceksin
##eği
##field
##gen
##gun
##io
##mesine
##seydin
##uyorsun
##ydü
##ysen
##ük
##şma
Gayet
Korkarım
Lord
Parti
Sizden
Var
bulacağım
bulacağız
cep
cesur
edersen
ellerini
gitmeliyim
gözden
istemezsin
kaldın
kazanmak
kaçtı
nerde
parlak
yerel
Üstelik
çekip
şeyle
##O
##ama
##inizi
##line
##luğa
##nacak
##nik
##nmak
##rdim
##ris
##yacaksın
Bekleyin
Ciddiyim
Gitmem
Thomas
arabaya
aramaya
başkanı
başlangıç
birinci
değilsiniz
diyelim
düşünmek
genel
kime
konuşmam
oy
söyleyebilir
tanık
veda
you
öğle
##U
##bu
##cılar
##her
##ladın
##nma
##ung
##â
##üs
Abby
Canım
Onlarla
Yedi
aldığı
aydır
domuz
düşük
gelmişti
geride
görebiliyorum
günden
hüküm
kaldık
keresinde
kutsal
verebilir
yüzünü
çıkarın
üzüldüm
##ban
##bilirsin
##gu
##ldu
##lmak
##mamız
##mizde
##miştir
##ron
##ski
##taki
##yeceğiz
##şa
80
Anlaştık
Deli
Hay
Joey
Karım
akıllı
alakalı
alay
ayağa
başarısız
binlerce
birbirimizi
birinde
bölge
dediğin
derecede
duruma
düşünüyoruz
edemezsin
ederler
ettiniz
gitmeliyiz
ilişki
işimi
olmaması
olmazdı
rica
sonrasında
tarafında
yardımı
yıldız
öldürdüm
İşler
##B
##eyi
##lemeye
##lenecek
##nlar
##nt
##rme
Carl
Dünyanın
Dürüst
Simon
Ulusal
Uyuşturucu
akıl
açıkça
bahsediyorum
biçimde
bırakmak
demedim
değişiklik
evlilik
farkındayım
girin
kocaman
nden
olmazsa
ortasında
partisi
silahını
söyleyebilirim
sürer
yaptığımız
yapılacak
yarı
zorla
ülkenin
Şerefe
şeydir
##G
##dikleri
##ic
##memiş
##oo
##rdın
45
Doug
Doğum
Kimi
Tanıştığımıza
Veya
almam
atmak
bazıları
bunda
canını
denir
elimde
faydası
fikri
getirir
gitmiyor
günlerde
inan
isterseniz
içmek
kahrolası
kardeş
kaybettik
kullan
mesela
sayılır
taki
yoğun
Çekil
çalışırken
üyesi
##abilmek
##id
##lamayı
##lıktan
##nie
##Ã¼
##üş
Silah
Susan
Süper
araç
birazcık
birisini
boktan
dost
elektrik
kardeşin
olmasa
sonuçta
yaşıyorum
zamanın
ölümü
şansın
##bel
##ciler
##ers
##ff
##imde
##larıma
##süz
##Ä±Å
Almanya
Batı
Beraber
Garip
Jenny
Leo
Meksika
Siyah
Washington
adamların
barış
cesaret
derim
getirdin
getireyim
görelim
gözüküyor
hissediyorsun
kalacağım
kamera
kartı
katı
kimi
kullanarak
olunca
onda
yerlere
öldüreceğim
öyledir
##abileceğini
##arlar
##lısınız
##rmış
##rsın
##ser
Annemin
CIA
Emredersiniz
Josh
Julie
Maria
Phil
alakası
aldığını
almayı
anlatmak
baÅ
ceza
di
doğruyu
emir
gerekmez
giderken
girerim
halinde
hayata
içi
kedi
kullanıyor
kırıklığına
müthiş
sol
şişe
##R
##ilen
##lli
##rsa
##sÄ±
##ura
Belli
Ed
William
Yüksek
arayacağım
bekliyoruz
biter
ciddiyim
dışına
giderim
günah
haberim
hayatımın
kadınla
kurşun
kuş
olduğunuz
olmalıyız
sordum
sÃ
söyleyemem
taş
temel
yandan
çalışmaya
öldüğünü
İkisi
şehirde
##ldi
##lla
##mene
##misin
##tun
##way
Kimsenin
Molly
Oyun
Rabbim
alanı
ayı
birbirimize
dahi
dönüş
geniş
ilan
ilgi
ismini
istemiyorsun
kutu
okudum
seviyorsun
sonrası
tanışmak
taraf
yasal
Çoğu
Üzerinde
çıkın
ödünç
##ada
##ağın
##fi
##lem
##lması
##mıyoruz
##ns
##tlar
##ılması
Amerikalı
Bizden
Dinleyin
Durum
Fena
Jackson
Kısa
andan
başla
bıktım
girmiş
gönder
hani
ihtiyacınız
korku
koruma
meydana
olmasaydı
umurunda
verdiğin
yapması
yeryüzünde
öğrenci
üzücü
##biliriz
##eler
##ette
##laş
##let
##onu
##tme
##tt
##tör
##uş
Anlıyor
Birinin
Birleşik
Ekim
Gidin
Hayal
Jeff
Kızın
Matt
başladın
edilen
futbol
gelirim
göstereceğim
halt
hatırlamıyorum
hedef
his
içindir
kapıdan
kör
ni
orta
parası
sahne
sağol
sendin
to
verdiğim
yapmalıyız
yemeğine
çaldı
çıkma
çılgın
##berg
##bir
##ble
##larsa
##nmiş
##viç
##wood
##ysan
##Ä±nda
07
08
Adın
Ara
Babası
Cumartesi
Korkunç
Tatlı
Yaklaşık
arabası
birbirine
bulup
düşündüğünü
elbise
eşlik
geliyorsun
gibiyim
görevi
kalbi
kişiye
kokusu
nedeniyle
oynuyor
pahalı
rüya
saf
spor
yüzüne
çirkin
şansımız
şuraya
##ai
##cisi
##eli
##gini
##lecek
##leriniz
##pi
##sunu
##ville
09
BH
Berbat
Birinci
Ellerini
Koca
Konu
Nathan
Okul
Rus
Smith
Uzak
Yahudi
arası
aşağıya
bakıyor
bilgisayar
bilirsiniz
derhal
ederken
eskiden
etmeliyim
gizlice
görmemiştim
günlük
insanlarla
it
kredi
nasıI
olmamız
problem
sonucu
tanımıyorum
unut
çalışacağım
İngilizce
şirket
##F
##başı
##mamış
##mıştır
##osu
##oz
##racağım
##siyle
##ucu
##ğından
300
Ali
Annesi
Açıkçası
Haklı
Jackie
Julia
Lucy
Oldu
St
Uyan
alabilirsin
anlamadım
bakış
birazdan
dediğimi
genelde
görmüştüm
gösteri
gücünü
gündür
havalı
hayatımda
işbirliği
kahretsin
mil
olamazsın
polise
savaşı
sefere
serseri
sevgi
talep
temsil
tepki
toplantı
varım
çıktım
üstü
İşi
şurada
##abiliyor
##iği
##mayan
##mer
##mışsın
##nizin
##ss
##uyorum
##yebilir
27
28
Aile
Arnavutluk
Eh
Fark
Hanımefendi
Millet
Müdür
Normal
Saçmalık
ameliyat
arkadaşlar
arkasına
bay
bayanlar
başlar
bebeği
biriyim
dedektif
düşündüğüm
etmedi
gelmeden
gelmesini
gelsin
hayatının
karım
konuştun
konuşuyorum
krizi
kusura
nu
odaya
renk
saati
seyahat
sürtük
sırf
çekti
çiçek
öldüren
öldürüldü
##ang
##ans
##hane
##lıyorsun
##tadır
##yacağını
##ydın
##şan
26
Aşağı
Howard
Kimseye
Polisi
Times
aşağıda
canavar
dahaki
değişti
dünyadaki
ekibi
geçerli
gördük
gördüğünü
kayıt
kurtarmaya
otel
sonuç
uyuyor
verdiler
verilen
çalışmıyor
çıkardın
ölür
Şeytan
şansım
##cım
##ev
##leniyor
##lenme
##lle
##ttim
##yamıyorum
##ymuş
##zlar
Durumu
Gary
Hareket
Lily
Maggie
Sara
Sizce
Victor
Yere
aldılar
annemin
arayın
bakar
başta
dediğini
döndüm
düğün
düşünmeye
elimizde
etmiyorum
fahişe
gidebilir
gitmeye
görünmüyor
görünüyordu
gösterdi
götürün
huzur
karşısında
nerden
nı
olduğunun
oluyorum
oturun
savunma
söylediğin
takımı
vaktim
veriyorsun
yapıyordum
çekiyor
Şehir
##cağına
##ceğin
##laşma
##mo
##ğüm
Arabayı
Aslına
BM
Chloe
Gitmek
Jesse
Kutsal
Roger
Rose
Rusya
Yıldız
bakarsan
bardak
bunlara
bölüm
derdi
grubu
göstereyim
hastalık
intikam
istediğiniz
kalıp
karmaşık
kıçını
onca
paraya
sevimli
siyasi
unuttun
yahu
çocuğa
öğleden
İçeride
ısrar
##erim
##ku
##ky
##lerce
##maları
##meme
##one
##tacak
##ırlar
90
Bölüm
Gerek
Herhalde
Jean
Rabbinin
Rahat
Tuhaf
Türkiye
adamsın
alıyoruz
anlamda
anı
başlamak
bey
bulunuyor
dersiniz
dile
duymadım
etmen
etsin
gördüğüme
haftadır
hatırladın
hâlde
iletişim
izni
içerisinde
kapa
kaybetti
kilometre
olmadığımı
riske
tadını
tanıyorsun
yahut
yapmalıyım
yapmanı
yüzü
ışığı
##alar
##ince
##mişim
##op
##ral
##rıp
##ud
##yo
##şın
Bruce
Helen
Rabbin
Rick
Sol
Sıradaki
bil
bulmalıyız
diğerleri
döner
düşman
görür
görüyorsun
gösteren
hayalet
izleri
işkence
kaba
kalmaz
kar
kararı
kaynağı
keşke
korkuyor
koyayım
mahkeme
pişman
posta
romantik
sağlamak
sevdiği
tanrı
utanç
zamanımız
çıkardı
##atı
##dığımız
##ili
##lanacak
##lmuş
##manız
##mizden
##mun
##oya
##ple
##tle
##yabiliriz
##ırım
Bakanı
Erkekler
Hmm
Hızlı
Kolay
Kızı
Laura
Maalesef
Orta
Rica
Seks
Taylor
Temiz
Tyler
Yardımcı
bakacağım
bekliyordum
demiş
dersi
hızla
istiyorsanız
kadına
kağıt
kendinizi
kişilik
niçin
programı
sandın
televizyon
tip
topu
yaptığınız
yolun
yılı
çıkış
##acaklar
##arken
##dunuz
##dün
##gün
##kte
##landım
##liler
##lıklar
##nızda
##riz
##zü
##ğımda
Afedersin
Babanın
Genelde
Hank
Kelly
Lois
Makedonya
Red
Sırf
bileyim
biridir
bölümü
dediği
dert
dış
edebilirsin
ekip
endişe
farkına
geceyi
izlemek
kayboldu
koyun
merkezi
okuldan
olmadığına
seven
sey
sürecek
uyan
vermez
ölecek
##dersin
##ete
##imin
##kli
##ling
##luğun
##lır
##mana
##mediğini
##res
Acı
Adamı
Basit
Burda
Marcus
Salı
Ta
Vegas
aklına
alacağız
annenin
aramak
belaya
bizde
boyu
dinlemek
ederse
etkileyici
etmeden
etrafta
geleceği
geçirdi
gönüllü
gör
harekete
ini
ipucu
lideri
lik
mucize
mıydın
param
sanat
sevmiyorum
verelim
yaparsan
Önceki
çalıştığım
çocuklara
öne
İnsanları
##Z
##biliyor
##ho
##kins
##meniz
##rdu
##recek
##run
##suna
##well
##yordum
##üyorum
##şim
29
Amca
Günü
Hayir
Jay
Kiminle
Miami
Ocak
Yanında
Yap
adlı
adın
aldığım
altından
arabanın
bakan
bizzat
bozuk
buldunuz
büyü
diyen
dolarlık
durma
dönerim
düşmüş
etkisi
geçici
götürmek
günleri
halkı
hassas
hesap
heyecan
hissediyor
ince
mahkum
merhamet
orda
parçaları
sordu
söylemeliyim
tecavüz
vay
yaptılar
yara
Çocuğu
çıkalım
ölmek
##00
##amayacağım
##bileceğim
##cam
##duğu
##hir
##nması
##od
##tar
##ts
Amanda
Angela
Arka
At
Başkanı
Betty
Buralarda
Dean
Grace
Güven
Hangisi
Kendim
Patrick
Robin
Sus
Umurumda
Yunanistan
aklını
alabilirim
alırız
atış
başkan
borç
bulun
bırakma
duymuştum
geldiler
im
koydum
mutluluk
oluyorsun
sakıncası
sorular
sürede
verdiğini
##ardı
##ede
##iriz
##kler
##lanmak
##layabilir
##layıcı
##leyecek
##likten
##mama
##miyoruz
##muyorum
##stan
##yabilirsin
01
Adını
Gün
Kime
Mavi
Morgan
Rabbine
Unut
açıdan
aşkım
by
davranıyorsun
durdu
etmedim
etmişti
fikrini
gözleri
haberin
hakkımda
kanı
katta
kaçırdın
konuşmamız
kırık
laf
li
makinesi
olalım
olsaydın
tavuk
uzay
uğruna
yarıyor
öldüğü
İnanılmaz
İçki
##ap
##asyon
##bon
##ceğine
##imizi
##kini
##klar
##kı
##laması
##likle
##lıydım
##maktan
##mar
##meyin
##müyor
##mızdan
##nca
##rıcı
##sinler
##tiğim
##tler
##ıyoruz
02
Benimki
Bulgaristan
Elini
Japon
Karen
Kurt
Ross
Savunma
Sıkı
Van
bakıp
beyefendi
bilinen
buçuk
dediğim
değiştirmek
dönecek
edemez
ekonomik
etmekten
gelene
gitmedi
götüreceğim
içindi
kalıyorum
kendinden
müsaade
nazik
peşine
profesyonel
raporu
siktir
tutuyor
ucuz
vahşi
vereceksin
yaparlar
yapmaz
ödül
şehri
##amak
##emedim
##ian
##ice
##layarak
##luğunu
##mayacağım
##muşsun
##rden
##sha
##sunda
##sınlar
##yuz
##zie
##üme
##ılı
Barry
Bunca
Dedi
Farklı
Fred
Gerçeği
Gitme
Hindistan
Hitler
Koş
Mac
Mümkün
Rabbimiz
Rahatsız
Sıcak
anlamaya
ağaç
bekleyen
bilemezsin
biliyordun
endişelenme
etmemi
gelme
gerektiği
gideriz
girer
götürdü
göze
iÃ
kaldır
okulda
olana
oturuyor
randevu
sanıyorum
takdirde
verip
yapıyordu
yarattı
yaş
yıllardır
zenci
Öldü
öldürdüğünü
şikayet
##acağına
##biliyorum
##diğimi
##ell
##irler
##kta
##leşiyor
##mli
##rey
##rik
##tedir
##ğiniz
##ızın
Bilemiyorum
Chicago
Cinayet
Dayan
Elizabeth
Evine
La
Marie
Of
Sigara
Silahı
Stan
abi
annemi
arabada
arıyoruz
atıyor
bakarım
bari
bırakmış
değeri
dönelim
evime
gelmeye
geçer
gideceksin
gitmeden
gitmemiz
görebilir
güne
hakim
hiçbiri
ilgilendirmez
istiyordu
nokta
olmalısınız
partiye
saç
seri
soracağım
sorunları
tahliye
yasak
yerim
çocuğum
ölen
İğrenç
##abilirsiniz
##bin
##decek
##emeyiz
##emiyorum
##ket
##kçe
##lat
##niyor
##tıyor
##val
##yesi
##zle
##ştı
Andolsun
Gerçi
Harvey
Kapı
Konuş
Memur
Telefonu
amına
cehennem
cezası
diyorsunuz
düşünün
eksik
eğlence
gerçekte
geçecek
geçmek
götürecek
hanım
hissetmiyorum
ibaret
konuşan
kızları
miydim
noktada
parayla
sorum
süt
tarihi
tuzak
ulusal
yat
yağmur
yedin
yetenekli
önem
üzerindeki
İnanamıyorum
şimdiden
##ei
##iler
##lemiş
##liydin
##nır
##saydım
##tığını
##ök
##ğumuz
##ğınız
##şır
35
Anlamadım
Deniz
Dylan
Film
Ian
Kıpırdama
Kızım
Mm
Rebecca
Shawn
Yol
aber
annemle
ateşli
atın
babamı
banka
bas
biliyorlar
duş
haftada
hastanede
itaat
izle
kalbini
karın
kaybettin
kaydı
kötüsü
sohbet
soruyorum
temin
top
vereceğiz
verirsen
yakından
yapmalısın
yıldan
zamanım
Ölü
Öncelikle
çöp
öldürürüm
öğrendin
Şurada
şaşırdım
##dÄ±
##fe
##hat
##ide
##ino
##izin
##lenen
##lenmesi
##nızın
##rana
##receğim
##sey
##tmaya
##tuk
##verdi
##wa
##yun
##üstü
##ığı
Altın
Audrey
Cooper
Gibbs
Haziran
Jessica
Kahrolası
Müzik
Polisler
Ufak
Uluslararası
alırsın
aracı
arasına
bakılırsa
bendim
bilgileri
davayı
dokunma
dönmüş
düşünmemiştim
edeceğini
evini
fiziksel
getiriyor
görmezden
gününü
hayatına
hayatında
kazandı
kral
mahkemeye
maruz
maç
net
oldular
olursan
oydu
sayıda
seferinde
servis
seve
sipariş
sorunum
suçun
söylemeyi
tarih
tutar
vur
yapmadı
yerinden
yumurta
çözüm
İncil
##anda
##ardım
##deyim
##diğimiz
##ebileceğini
##kanı
##laşmış
##les
##lıkta
##lın
##mışlar
##oyu
##stik
##tiyor
##tiği
##tılar
##ydik
##yemem
##yıcı
##çiler
##ünde
Arkadaşım
Diane
Elimizde
Kadınlar
Unutma
adi
amca
aniden
aralarında
buluruz
bırakır
bıçak
dönüyorum
ekmek
gaz
geliyorlar
getiren
görmeyi
görmüyorum
güzelsin
haberdar
ihtiyaçları
karşıya
keskin
korkuyorsun
kusursuz
neresi
oku
orayı
paket
sadık
silahlı
sonuçları
testi
uluslararası
verildi
yalancı
yazar
yaşadığını
Üçüncü
Şarkı
şiddet
##cağın
##duğunu
##dığında
##hen
##larımızın
##luyor
##lığında
##mışım
##ore
##so
##ydık
##zler
##ğinden
Ailem
Ayağa
Catherine
Diğerleri
Elimden
Ellen
Genel
Gitmeliyim
Hayatımı
Jo
Kalp
Karanlık
Kasım
Köpek
Romanya
Savaşı
Sıra
Temmuz
Yarım
anlarsın
açmak
aşağılık
bedava
bulamadım
bulunduğu
diş
duruyorsun
etmeni
evlenmek
gösterir
hafif
icin
ilham
işlerini
kadınları
leri
merkezinde
mevcut
minnettarım
oh
olacağı
saldırıya
sağlayacak
uyar
uyku
video
yapmıyorum
yaşamaya
çılgınca
##ae
##amayacaksın
##ant
##bur
##cılık
##diklerini
##eleri
##etin
##ica
##kat
##mis
##net
##riyor
##yüm
##zsın
##ırdım
2005
Andrew
Hayatını
Joseph
Katie
Kişisel
Koç
Madam
Orospu
Oscar
Sırp
Vince
Yakın
Yaptığın
basın
bulur
bıraktın
ciddiye
davası
delik
dir
diyebilirim
fırsatı
geçiriyor
gitmiyorum
gördüğümde
gününde
ilerleme
isterse
kaltak
katılmak
kocası
korusun
kulluk
midir
model
olurlar
sırası
tarzı
telefonunu
toprak
türden
ufaklık
unutmayın
yaparak
yazı
yaşadım
yük
Çıkar
çıktın
üstesinden
şunları
##Y
##amazsınız
##dığımı
##erin
##fer
##gar
##gın
##ite
##iyoruz
##ledik
##ledin
##leşti
##lığından
##saydı
##vin
##ğımızı
Belgrad
Biliyordum
Birşey
Johnson
Jones
Kanada
Karşı
Katil
Kore
Kraliçe
Mart
Müthiş
Nisan
Roy
Williams
Yerel
ah
alacaksın
anahtarı
anlamak
arkadaşları
attım
azabı
aÃ
babasının
bahsediyoruz
başladık
davran
dik
edebiliriz
etmiştim
eş
gecenin
gelmedim
gemisi
gördüğün
görüşme
harikaydı
indir
iÅ
işime
kadınların
kalanı
kasaba
kurtulmak
olacaksınız
olanlardan
oldukları
olmalıydı
oluşan
pes
sanıyorsunuz
söyleyebilirsin
tur
tıp
uzağa
vermeden
yapmayacağım
yaşa
yaşındayken
çalışır
İbrahim
şiddetli
##ali
##ates
##bay
##bol
##har
##ladılar
##lenmek
##lerse
##lt
##mazsın
##muyorsun
##siyon
##örü
##ğan
##ımda
##ıştım
Anlat
Anlaşılan
Aşağıda
Bi
Charlotte
Duydun
Güç
Güçlü
Hannah
Oliver
Oradaki
Oysa
Perşembe
Sanmıyorum
Soğuk
Türk
Wayne
Yunan
Zamanı
acayip
aday
aksine
almadan
amacı
aradın
arkadaşının
arıyordum
aynısını
açıklama
banyo
beklemek
bilerek
bitmedi
boyun
bulurum
davranış
diğeri
durdur
dönem
güveniyorum
kalabilir
kalacaksın
karşılığında
kaybı
korumaya
koydu
kötülük
manyak
mektubu
saate
sayı
sevdiğin
sokakta
süren
tanıdık
tarz
tren
uh
vampir
yetmez
yo
yönünde
Çocukları
çıkıyorum
öldürür
üniversite
şimdilik
##cısı
##hy
##inci
##ladığı
##layabilirim
##liyorum
##muşum
##rmeye
##sızlık
##tüm
##yeyim
##ğünde
2000
70
Balık
Birazcık
Birileri
Bravo
City
Firavun
Greg
Hoşuna
Ooh
Sophie
Wilson
ailenin
bakabilir
başını
dakikada
denedim
değişir
düşünce
edemiyorum
evim
gergin
getirecek
girdim
güzelmiş
heyecanlı
hikâye
izledim
kadınlara
kalacağız
korkarım
kurmak
kurtardı
lı
mesajı
onur
savaşın
sizde
söylerdi
tanıştım
vermedi
vermeyi
yaklaşıyor
yapabileceğim
yatağa
yazdım
yeteri
yetişkin
yüzlerce
yılın
Önceden
çıkarma
öldür
ülkede
Şuradaki
şaşırtıcı
şeklinde
##acağın
##asını
##chi
##det
##dışı
##eller
##erken
##ladık
##ledim
##lendim
##lerime
##lmesi
##mayız
##musun
##nüz
##nıp
##oda
##ota
##rılmış
##sizlik
##zan
##zer
##zla
##zo
##ılmaz
##ımızı
150
Belediye
Bin
Birliği
Buldum
Bunda
Casey
Evi
Evin
Jordan
Sally
Sonraki
Sonsuza
Usta
Vincent
Yaşasın
Zengin
ailesinin
alması
alıyorsun
ayakta
bulalım
dakikalığına
deri
duydunuz
gerekiyorsa
geçip
giderse
gitmeyi
gittiler
hangisi
hasar
hastalığı
hissettiriyor
hükümet
hırsız
iken
insanlardan
kadarı
katili
kendileri
kocam
motor
müsün
olağanüstü
olmalılar
olmamı
olsan
planın
polisler
ruhu
sevmez
söyleyip
süreliğine
vücut
yanıma
yaptığına
yaratan
çocukken
ölüyor
##abileceğimi
##izde
##je
##kça
##liydim
##mekten
##mezsin
##rsan
##yn
##zun
##zy
##öl
##ücü
##ünden
##ünün
##ğün
##ğının
2006
2007
Adamım
Ahbap
Bayağı
Bey
Birden
Bölge
Carrie
Derek
Elena
Eylül
Frankie
Hayatımın
Jamie
Linda
Mesele
Prens
altındaki
ateşi
aylık
borçluyum
burdan
demeye
denemek
dev
doktora
erkeğin
garanti
gelmesi
giren
günüm
hikmet
hoşlanıyorum
istemezdim
içten
işareti
kafalı
karıştı
kazandım
kuru
ların
listesi
olabiliriz
oradaki
paranın
resmini
san
sağlıklı
sokak
sorunumuz
taze
tekisin
tutan
vermelisin
yangın
yumuşak
yönelik
ziyarete
Çarşamba
ölümünden
şehre
şehrin
##cının
##klı
##kü
##ladığını
##lanır
##madığını
##nir
##nus
##ola
##ong
##rık
##saydın
##ula
##uzu
##zsan
##âl
##é
##ımdan
##ızda
##şık
31
Aaron
Aramızda
Bizler
Boston
Bunlardan
Buyur
Dedim
Dediğim
Jess
Justin
Miller
Mısır
Noeller
Oradan
Sahi
Söylesene
ajan
açtı
başlayacak
bildiğini
dakikaya
duran
geceki
gerekeni
gidiyorsunuz
göreceksin
görmem
hatırladım
hepimizi
istemiş
kalanını
kart
kimdi
köpeği
kıyamet
memur
milyonlarca
olamam
olmayabilir
ordu
sandviç
sağlıyor
sevmem
sinyal
sola
sıkıntı
tehlikede
teklifi
teknoloji
vaktimiz
verdiniz
versin
yerime
yokmuş
çalmak
ölüme
önde
İspanya
##V
##aları
##bileceğin
##cın
##ght
##idi
##ise
##ius
##kileri
##lam
##lamaz
##liydi
##madığım
##mond
##muştum
##nım
##rını
##sindir
##çılar
##ımın
##ınca
##ınızı
##ştım
Adalet
Bahse
Bakanlığı
Efendi
Geriye
Han
Hayalet
Kafayı
Monica
Wendy
Yağmur
adresi
arkada
ateşe
ayda
bahse
bildiği
bilmeni
bitmiş
cesedi
dar
deneme
deniyor
derdin
değildin
dişi
doğrudan
duyabiliyor
duygu
döndün
etki
geçin
giriyor
girmeye
gönderdik
görmedin
ihtimal
insana
internet
kurtardın
kuvvetli
madde
memnunum
milyar
neredesin
olabilirler
olurdum
otobüs
oğlan
pekala
sahibidir
sarı
savaşa
seçenek
suya
teknik
tesadüf
uçuş
verebilirim
yapamaz
yapardı
yapardım
yaradı
yaramıyor
yatıyor
Ä±nÄ±
Çoktan
çocukla
önemlisi
önümüzdeki
##bar
##cher
##dem
##etini
##etler
##he
##likte
##ow
##rağı
##rıyorsun
##yeceksin
##yer
##yonu
##ıl
##ılabilir
##ıt
48
Arkadaşın
Bilmek
Elinde
Gecenin
Geçti
King
Marty
Neydi
Oda
Penny
Score
Sonuçta
akıllıca
alana
alanında
aldınız
anlatacağım
anneme
aradığını
arkadaşlarım
bayılıyorum
bilmez
birbirlerine
dizi
durdurmak
duvar
düşünmüyor
elimizden
etmedin
etmemiz
evimde
fotoğrafı
gene
gençler
gittikçe
görürsün
hissettiğini
ikisini
katında
kilitli
konuştuk
meyve
olmamış
olmana
oradaydı
program
suçum
söylersin
unutmuşum
yakalamak
yapıldı
Öldür
Ön
çalıyor
çekiyorum
öldürüyor
öğretti
öğüt
şef
##abileceğim
##amıyoruz
##ane
##bileceğimi
##ebilirsiniz
##enler
##ier
##kili
##kle
##lanması
##lendirme
##lmaz
##lıp
##madık
##mdi
##mon
##muzu
##rabilir
##sünü
##tecek
##tif
##var
##yebilirim
##zdı
##öle
Aralık
Arkadaş
Bildiğim
Blake
Caroline
Cole
Davis
Dennis
Donna
Edward
Gene
Merkez
Mitchell
Nihayet
Sekiz
alışveriş
anasını
aykırı
ağzına
bahsetti
başlıyorum
bekleyeceğim
bulmamız
darbe
değişik
duyduğum
dı
edebilecek
eğitimi
felaket
gitmesi
golf
is
istemediğini
istememiştim
kafası
kaptan
konuşacak
kuralları
lerin
me
nakit
numarayı
olacaklar
olanlara
olmayacağım
risk
temas
tuvalet
tıbbi
viski
yardımına
yarısını
yazmış
yaşıyoruz
yiyelim
yokken
yüzümden
yılan
Ölmüş
Örneğin
çaba
çalıştığı
çikolata
öyleyim
İlginç
İstediğim
##J
##adım
##amayacağını
##can
##cası
##cy
##ds
##dıkları
##indeki
##ith
##izm
##laştı
##lden
##lerimin
##miyorlar
##nıyorum
##rem
##rse
##sızın
##ttı
##ugh
##uro
##yamadım
##zsin
##ıyorlar
32
Annemi
Birbirimizi
Brown
Cep
Dünyayı
Elimde
Göster
Göz
Günün
Japonya
Malcolm
Martha
Mesaj
Nedenini
Parker
Prenses
Tanrıya
Yusuf
Yüz
Zoe
ailesini
aktif
alındı
anahtar
ayakkabı
bayılırım
belirtti
bilmen
bitiyor
borçlu
bulabiliriz
cinayeti
değiştirdi
dini
dolara
edersiniz
fazlasıyla
gerekti
geçelim
gibiler
gideceğini
gitmesini
gittik
görünüyorum
haksız
hayvanlar
hazırız
hepimizin
hukuk
inananlar
istediğimiz
izliyor
kadarını
kafasını
kardeşini
kilit
kontrolü
koymak
mermi
miktarda
müdahale
noktası
olabilecek
olmasından
olmasının
sevdiğimi
si
teşhis
topla
yardımcısı
yaşıyorsun
yetecek
yumruk
çalışıyorlar
çizgi
çıkmaz
örneği
İnsanlara
İtalyan
İtiraf
Şüphe
##burg
##eden
##iyorlar
##izik
##ker
##loji
##sler
##tre
##tta
##uldu
##ılmasını
Bart
Beth
Düşündüm
Eğlenceli
Gelip
Görev
Herkesi
Herşeyi
Komiser
Konuşmak
Marshall
Maya
Mayıs
Megan
Michelle
NATO
Olivia
Partisi
Ron
Travis
Vur
Yolu
anneni
aşkın
bakmaya
bar
bela
birilerini
birinden
buluyor
buysa
devre
dikkatini
dilediğini
din
düzenli
düşen
düşünme
ederdi
etmesini
eşit
giderek
gizemli
gündüz
haberler
hatası
icabına
inanmak
içelim
kahvaltı
kalmayı
kapının
kapıya
kimlik
korkutucu
koru
modern
müşteri
mıdır
olabilirsiniz
olayın
paran
rezil
sesle
sordun
sorumluluk
tanıklık
tehlike
ulaşmak
umuyordum
verirseniz
yaratık
yaşına
Çeviri
öbür
öncesi
öğretmen
şahit
##abildin
##acağımı
##arız
##cular
##day
##eceğin
##gü
##imize
##ive
##lah
##lamıyor
##larımın
##lisiniz
##masın
##mazlar
##mişler
##my
##ning
##ova
##po
##rimi
##rmayı
##shi
##tıcı
##ğumu
911
Ailesi
Albert
Arabaya
Barbara
Barış
Başbakan
Bilgisayar
Bosna
Brad
Fransızca
Hepimizin
Jennifer
Komutan
Korkma
Kızıl
Liam
Meryem
Nate
Taksi
Yeşil
annesinin
arabasını
ayında
başkasının
benzemiyor
bilet
bişey
bulana
bölgede
bırakacağım
bırakıyorum
canımı
davranıyor
dördüncü
düşünüp
edilemez
etmiyorsun
ettikleri
eşcinsel
eşi
eşyalarını
geçtim
gidebilirsin
gitmelisin
gününe
güvenilir
hapiste
herifin
inkâr
istemedi
istersiniz
kalmaya
kalırsa
kendimizi
konuşurum
korktum
köle
lider
meydan
müziği
nedenini
olanların
olaya
oldunuz
oyuna
patates
rüzgar
silahları
söyleyeceksin
sözleri
takma
tutmaya
tuttu
tuvalete
yargıç
yatakta
yatırım
yerler
yukarıda
yüze
zalim
öldürme
İşini
Şayet
şok
##abiliyorum
##adı
##ary
##bayı
##ela
##ilir
##jik
##lamam
##larmış
##liğinde
##ller
##lmaya
##lÄ±Ä
##lıkları
##rdum
##tesi
##tiğin
##yak
##ğıma
##ıyordu
##şmaya
2004
2008
400
Aksi
Carlos
Haber
Halk
Ho
Jeremy
Kapat
Kardeşin
Kimseyi
Leslie
Leydi
Norman
Riley
Suç
Tanrının
Walker
Yıllar
anlatmaya
aranızda
atmaya
açıp
başım
belada
bilgiler
bizler
boya
bunca
cadı
cevabı
dondurma
düşündü
düşündüğün
ettiğimiz
evinden
feda
geliyoruz
gördüğü
haberlerim
halk
herkesten
ihtiyar
ikimizin
ileride
istiyorsa
içecek
kirli
kural
maymun
maçı
mezun
nükleer
okulu
oğlun
oğlunu
politik
rüşvet
saattir
söylememi
sınırı
umuyorum
unu
yapmadan
yapıyordun
yerleri
Üst
çalıştın
çağır
çıkarmaya
öldürmüş
önemsiz
öpücük
özlüyorum
İster
şarkıyı
şeyde
##amıyorsun
##arp
##arın
##ben
##cileri
##düğünü
##ilecek
##kâr
##larken
##leyip
##lidir
##nti
##oker
##rdık
##rg
##rsak
##rına
##seler
##sie
##tch
##tük
##tısı
##vet
##şmak
##şu
Abi
Babamı
Boşver
Carol
Hele
Jacob
Karar
Kayıp
Konuşmamız
Mickey
Natalie
Oturun
Pis
Rob
Sürpriz
Teknik
Terry
Yardıma
acımasız
anlamsız
anlatayım
anlayamıyorum
annene
arayan
azab
açıklıyor
açısından
ağrıyor
bahset
başımdan
bekliyorlar
bildiğin
bina
bozucu
cennet
daire
ederdim
etkili
etrafı
ettiğimi
getireceğim
gitmen
görüntü
görünüşe
güvenliği
güzelim
hakları
haksızlık
halkın
herifler
ikiye
içimde
kalmayacak
kiminle
konuşması
konuştu
kızını
olacağına
olayım
savaşta
sağlar
sağlayan
sonsuz
toplum
umrumda
uzman
yapacaksınız
yapmadın
yaptığımızı
yarayacak
yarış
yüzüme
Çocuğun
çekim
çıkacağım
çıkarıp
öldüğünde
ölümüne
öylesin
İtalya
##abileceği
##ade
##bal
##bat
##ceye
##dırıcı
##ern
##fin
##him
##ion
##lemeyi
##lendirmek
##lenmeye
##lerdeki
##lığım
##lığının
##mları
##muştu
##nak
##ndim
##oran
##rmiş
##rn
##sanıza
##ulmuş
##ysam
##çisi
##ül
##ğımızda
BaÅ
Baştan
Clara
Clay
Derin
Francisco
Gordon
Hayatımda
Hayatın
Louise
Lucas
Margaret
Miles
Papa
Randy
Ses
Silahını
Sizler
Toby
TÃ¼rkiye
Walt
Yaptığım
anlamıyorsun
açar
ağzını
babama
bitirmek
civarında
durumunda
duruyorum
duyarım
dır
ellerinde
emekli
gelmiştir
girdin
gitmişti
haberleri
hikayesi
hoşgeldiniz
ilişkin
istediklerini
istediler
izini
kadeh
kalması
kazandın
kol
korkak
kulağa
kurt
kutlu
lezzetli
makine
muydunuz
nihayet
nÄ±n
olmanız
puan
sayın
seviyoruz
söylemen
sınır
tanıdığım
tanımıyorsun
um
vergi
yakaladım
yapımı
yaşındasın
yem
yönetim
Öylece
çıkarken
çığlık
ödemek
öyleydi
İstemiyorum
##H
##abileceğin
##adan
##atör
##cus
##dale
##don
##dırlar
##ico
##ig
##ilmesi
##kası
##kil
##layacağız
##lısı
##mayacaksın
##medik
##nim
##nları
##ree
##rid
##rız
##uma
##umuz
##Ä±n
##çü
##ğinin
##ğınızı
##şıyor
AFP
Allison
Annemle
Bilim
Buyrun
Etrafta
Gözlerini
Hükümet
Jen
Jonathan
Kendin
Kocam
Monk
Problem
Rabbi
Rahatla
Sahte
Senatör
Shane
Spencer
Stanley
Söylemek
Takım
Yakaladım
Yapacak
Yukarıda
adamdı
adımı
aksi
anlar
anlaşıldı
arkadaşını
arkasından
ayrılmak
aşkı
bağlantısı
belediye
beğendim
bildin
bitecek
bulamıyorum
canı
doldu
dostlar
durup
duymadın
düşmanı
evlenme
farkı
gelmen
genellikle
getiririm
geçmişi
gönderin
gözü
hakkın
hiçbirşey
ihtimali
iste
isterdi
iyiliği
işiniz
kalabalık
kanun
katılıyorum
kaybetmek
kek
kimliğini
kulübü
merkezine
noktaya
olaylar
polisin
razı
rengi
sizce
sorayım
sorunlar
söylemeyeceğim
söylüyordu
sürüyor
sınıfta
tak
tarafına
tatil
telefonda
topluluk
uğradım
vermeyin
yakaladı
yüce
Çay
çeker
çekin
öğlen
ülkeye
üniversiteye
şapka
şekli
##ala
##aret
##atları
##bert
##bileceği
##bilen
##blo
##bus
##caklar
##dor
##dük
##düğüm
##hin
##his
##ile
##iyordu
##las
##lebilir
##lmez
##masından
##mdaki
##mine
##necek
##nler
##oe
##ons
##oy
##raf
##rama
##rat
##sis
##ska
##sna
##sta
##suzluk
##sünüz
##sıdır
##tası
##tün
##tığın
##win
##üldü
##ıldım
##şıp
Ailen
Alt
Annenin
Bira
Dick
Kendime
Kenny
Lewis
Lincoln
Liz
Merkezi
Nora
Owen
Parmak
Sahip
Saçma
Sağlık
Sevgilim
Sue
SÄ±rbistan
Tina
Tut
Um
Yatak
Yirmi
alkol
alman
bahsediyor
balığı
başkasına
başlamadan
bedeli
bilendir
bilmiyordu
birliği
dayanarak
dedik
dikkate
dil
diliyorum
dövüş
düşünür
etmesine
ettiğiniz
geliyordu
gerçekleri
geçmişte
ilişkisi
işlerin
kaybetmiş
kolayca
konuya
konuşacağım
konuşurken
kutusu
kuzey
lâzım
masa
müdürü
olayını
olmaları
olumlu
peygamber
rock
sabit
sayfa
sırrı
toplantısı
tuttum
vaktin
verdiğimiz
vermen
yapabileceğini
yazılı
yemeye
yiyor
çocuğunu
çıkmadı
çıkmaya
öğrendi
öğrenmeye
üzerime
İyice
##altı
##ato
##aÄ
##cker
##deceğim
##duğum
##dığına
##emezsiniz
##emin
##erler
##giz
##haneye
##house
##iyeti
##larca
##larımdan
##layayım
##lock
##lüğünü
##malısınız
##mba
##meyeceksin
##mit
##nmaya
##ori
##ue
##uyoruz
##vo
##worth
##yeceğin
##ştan
Ann
Ayak
Başına
Blair
Daima
Damon
Devletler
Dokunma
Dışişleri
Eli
Federal
Francis
Hata
Hollywood
Julian
Kimsiniz
Kitabı
Seth
Söylediğim
Yapmak
ailen
anlattım
batı
baya
başkasını
benimki
benziyorsun
bildiğimiz
birisinin
bulabilirim
bulmam
buyurun
deneyelim
dilemek
doğmuş
edilecek
etmeyecek
eyalet
gereksiz
gitmiyorsun
gittiği
giy
haram
hatan
istemek
istemiyorsan
içmeye
kafasına
kalmasını
karı
kaçak
kaçmak
kaçırdım
kenarında
memuru
merkeze
miktar
mudur
okumak
olursam
oyuncak
saldırdı
sihirli
soruyor
soruyorsun
söylediğimi
sözünü
sıfır
telafi
toz
uyarı
vermedim
vermiştim
vurdum
yapmıştım
yaşındayım
yemeğini
yirmi
yolundan
zafer
Üzgün
çalışması
çağırıyor
çekmeye
çıkıyoruz
Şeker
##acaktır
##amadın
##amı
##anları
##arda
##caktır
##culuk
##dam
##eme
##emi
##ent
##ick
##işi
##kes
##landın
##lanıp
##lardaki
##layalım
##leşecek
##lon
##lıydı
##ort
##ps
##rick
##rinin
##ulur
##vat
##yamaz
##yeyi
##çileri
##ürek
##ındaki
##ırsın
##ırız
##şek
##şik
##şını
Avukat
Barney
Bilmiyor
Doğruyu
Gidiyorum
Harris
Heather
Karadağ
Kendilerine
Mmm
Ruh
Russell
Spor
Takip
Tracy
Yanımda
Yer
Yıllardır
almıştı
alıyorlar
anlamıyla
anlarım
bakım
başladığında
bittiğinde
bulunur
böcek
delikanlı
diyecekler
duvara
duyduğuma
düz
düşündüğümü
edecektir
erdi
eti
etmiştir
fayda
federal
fotoğrafları
gazete
gecede
geldiğimde
görevlisi
gösterecek
güzellik
hali
halka
hediyesi
hitap
imza
inin
işinde
kafanı
kalbim
kaçırmak
kesip
kibar
kimseyle
marka
melek
operasyon
sabırsızlanıyorum
sayısı
secde
seçtim
sigorta
soruşturma
sus
söylüyorsunuz
taksi
tuzağa
ulaşmaya
uyu
uzaktan
veri
vurmak
yakınında
yapmasını
yazıyorum
Ä±n
Önümüzdeki
Üniversitesi
ölmüştü
öte
İsmi
şeylerle
##age
##aka
##desi
##eceğine
##ft
##iliyor
##int
##izden
##landırma
##lenip
##leyici
##lmeden
##lyn
##lüyor
##lıklı
##niyorum
##nlara
##ralım
##rinden
##ruyor
##tiniz
##tra
##ua
##uck
##ulan
##uğu
##yici
##zdim
##ınıza
##ışma
Aklını
Anlaşma
Ağustos
Bishop
Carla
Christopher
Düğün
Epey
Güvenli
Halbuki
Hemşire
Hersek
Ken
Logan
Mi
Naber
Rock
Sosyal
Sırada
Sıradan
Tabiki
Top
Yan
Yangın
Yaşam
Yiyecek
adamdan
akan
aklından
almaz
almıştım
alçak
amacıyla
ayın
açıldı
babanı
babasını
bayıldım
bağlantılı
başımıza
belirsiz
bugüne
buldular
bırakayım
diyordum
edecekler
ek
eli
elime
etmenin
eğlenceler
gelmiştim
getirebilir
gezegen
gidebiliriz
gitmedim
gitmeni
göreceğiz
göt
gözünü
hemşire
idam
inek
istedik
istedikleri
kafana
kardeşinin
kazanan
kullanan
kısım
lazımdı
olursak
oğlumu
sebeple
seç
sivil
sizler
söylemesi
tanırım
tanıştık
tatmin
taşı
trafik
uçağı
verilmiş
vermesi
yanından
yapmaktan
yapsın
yazdı
yaşadığı
yorgun
yöne
zekice
Öğle
â™ª
çanta
çantası
çaresine
çeşitli
çoğunu
öldürmedim
ölmesini
ölümcül
özleyeceğim
ücret
üstünden
şeyini
##PD
##SA
##ale
##arsın
##ata
##ate
##bie
##ebilmek
##era
##ich
##irsin
##klarında
##landırmak
##lanın
##larÄ±
##layamazsın
##malar
##manızı
##meyiz
##psi
##rip
##rit
##seydik
##tiler
##tleri
##tro
##usu
##uyla
##uştu
##vır
##ıldığını
47
April
Bugünkü
Buranın
Canın
Dua
Erken
Eva
Green
Herneyse
Holly
Kahvaltı
Kent
Mason
Meredith
Muhammed
Mösyö
Nina
Olan
Plan
Polise
Rahip
Ralph
Sağolun
Sonrasında
Tae
Todd
Virginia
You
alet
aman
anında
arabadan
arkadan
arkadaşların
attın
başlamış
başının
bebeğin
birisine
bitince
blok
bozuldu
cüret
direk
diyecek
diyeyim
dosya
durumun
duymuş
düşünen
ebedi
elimi
fare
fazladan
geceleri
geleceksin
gelenler
gemide
görünüyorsunuz
göğüs
güveniyor
iade
ibret
icat
iyiyiz
içeriye
kafam
kalmamış
kayıtlarını
komutanım
metal
moda
oldugunu
olmadığım
pazar
sahneye
salim
sapan
satış
saçlı
senedir
seninki
sevmiyor
seçeneğim
suyun
tanımak
tebrik
temizlemek
uyum
versene
yaptıklarından
yasa
yazan
yorgunum
yıldızı
çektim
çıkabilir
çıkardım
çıktığında
İsrail
İçine
Şükran
şeytanın
##IN
##afa
##dular
##düz
##eder
##etti
##fya
##labilir
##larınızın
##laşmak
##laşır
##lerinize
##lie
##liğinden
##lmadı
##lojik
##lÄ±
##mizle
##mıştık
##nası
##ndığını
##rdin
##rett
##ruk
##syonu
##tayım
##teri
##tine
##tini
##tmış
##tılı
##uşu
##yat
##ülen
##üze
##ıda
##ılmak
##ızdan
##ığa
36
42
Almanlar
Ağır
Beyin
Brooklyn
Cam
Ellie
Elvis
Er
Ethan
Gidiyoruz
Girin
Hanım
Homer
Hong
Hop
Jill
Kar
Kavga
Lance
Lou
Mahkeme
Mantıklı
Meg
Müfettiş
Nancy
Neil
Ordu
Pam
Resmi
Saray
Sarhoş
Stephen
Stuart
White
acıyor
almalıyım
amaç
ani
barda
başarı
belası
bitir
bulunmuş
bulursun
bırakacak
cesedini
dediğine
dolusu
döndüğünü
düşünüyorsan
edemeyiz
ederseniz
edilebilir
ediliyor
er
evvel
gay
geldiğin
gelecektir
görevin
görmüyor
gözle
hapishane
herhâlde
hoşlanmıyorum
hoşlanıyor
ilacı
inanır
istemiyoruz
kalkıp
kalmıştı
kalıcı
kesmek
kurtar
kötüye
kıyafet
numarasını
olabiliyor
ortalıkta
oturan
oturma
oynamaya
oyuncu
popüler
rahip
saatlik
sakının
satmak
severdi
soruyu
söylediniz
söylemiyorum
sürmez
sı
tadı
taşımak
tutup
uçağa
yapmana
yaptığınızı
yoruldum
zehir
zekalı
zordur
zorundaydım
çalışırım
çeken
çocuklarla
çıkarır
üstüme
İleri
Şüpheli
##IS
##abildim
##anma
##ao
##baz
##bbs
##cımız
##dırıyor
##emedi
##fet
##gele
##gh
##gs
##iki
##iyetle
##iyim
##laman
##larız
##ldım
##likler
##liğim
##lları
##meliydim
##ndım
##ray
##rdan
##resi
##retim
##rine
##risi
##senize
##sim
##sli
##ssa
##teceğim
##tor
##wn
##zdım
##şım
2003
Annene
Arabada
Arabanın
Arada
Atina
Birbirimize
Bo
Bol
Böylesi
Cehennem
Christian
Connor
Dava
Derhal
Devlet
Elliot
Eyalet
Ford
Gus
Görmek
Harold
Hassiktir
Irak
Kaldır
Leonard
Mulder
Murphy
Salak
Stefan
Tehlikeli
Yardımcısı
Yaz
Yerinde
Yola
alamazsın
anlam
atıp
aynısı
baktı
bedelini
benzeyen
benzin
bittiğini
cihazı
defalarca
demir
demiyorum
diyeceğimi
durumdan
durur
dünyadan
dışarıya
edilmesi
elden
erkekle
erkeklerin
gelişme
geçirdin
geçirmiş
gidemem
gidemezsin
gireceğim
gitmesine
görmedi
görünen
gösterin
götürür
gündü
halini
hastası
hayli
hı
izler
jüri
kaldığını
kapandı
kaçırdı
kilise
koltuk
konuştuğunu
korkusu
koş
kralı
kurusu
layık
muazzam
nasılsınız
odasını
olmakla
organize
patlama
renkli
seçti
sin
soktu
sorma
taciz
taşıyor
tutacak
yanıt
yayın
yedim
yolla
yolladı
Çocukken
Üstüne
çalışmayı
çalışıyorsunuz
önemlidir
ötesinde
Şubat
şampanya
şerefine
şişman
##92
##acaklarını
##boş
##caya
##che
##dge
##diğine
##efil
##imden
##imizin
##kim
##kım
##ladığım
##larınıza
##lek
##lemez
##lenin
##lüğün
##malarını
##melerini
##nne
##ntı
##nıyoruz
##ona
##racağız
##rice
##rları
##rle
##rman
##rol
##row
##tmeye
##ves
##yamazsın
##yeceği
##yolu
##ysem
##yup
##zdi
##çan
##ülecek
##ğimizi
##ıra
##şmek
##şmış
##ştir
Afganistan
Amma
Anderson
Baylar
Cumhuriyeti
Dawson
Doğal
Duydum
Duyuyor
Dünyada
Evlat
Florida
Gitti
Görüyorum
Hafta
Kuran
Nuh
Numara
Okula
Okulda
Sahiden
Seçim
Victoria
alınmış
anlaşmayı
askerler
atmış
bekleme
belirli
birbirlerini
boy
buluşalım
böyledir
cuma
dediniz
delilik
denize
devamlı
dinleme
diyerek
düzeltmek
düzen
düşünüyordu
düşüyor
edilir
esas
etmeyeceğim
for
gelmeni
getirmeye
getirmiş
gördüğümü
hain
hakkım
hareketi
hastane
hatırlamıyor
havada
hile
hissetmek
ilgileniyor
istifa
kanka
kanser
kaçmış
kemik
kendisinin
koku
konuşur
kullandım
kurbanın
malı
nadir
ofise
ofisine
pasta
peynir
radyo
reklam
sanmam
soygun
söyledikleri
söylediğinde
söylesem
tekne
toplam
vererek
veriyoruz
yapacağı
yapmayın
yemiş
Çekilin
Çocukların
çalışacak
çıktığını
öğren
üye
İkinizin
İzninizle
Şarap
Şimdiden
şart
şiir
şirketin
##EN
##aj
##art
##asa
##dek
##derim
##değer
##dia
##die
##duğun
##dÄ±Ä
##dırmak
##ecekler
##ecektir
##enk
##esini
##imizde
##işim
##larımızdan
##larındaki
##leşmek
##lf
##lk
##lmasını
##ls
##luyorum
##lÄ±k
##more
##nya
##nızdan
##ora
##plar
##rarak
##rası
##rina
##rta
##rü
##salar
##tığım
##ucky
##ulüm
##varı
##ymuyor
##ıştı
##şin
##ştır
75
Aah
Adli
Aklıma
Aklından
Akıllı
Arkadaşlar
Aşık
Banka
Bomba
Bonnie
Buz
Dünyadaki
Eller
Evli
Gabriel
Gördüğüm
Hamile
Hırvatistan
Jersey
Karısı
Katolik
Kenara
Kendinizi
Kocaman
May
Nazi
Neyden
Paramı
Sanat
Saçmalama
Yakala
Young
ahmak
alamıyorum
almadım
anlamını
arasından
bakarak
bakıyordum
bağımsız
bekledim
beklemiyordum
bekleniyor
binanın
bulabilir
bulacak
bulacaksın
bulduğunu
cam
defol
derdim
duruyordu
dönmem
düzine
düşünüyorlar
etrafa
eşyaları
fincan
fiyat
gelse
gitsem
görebiliyor
göreceğim
görüp
gürültü
hele
ilerliyor
inanan
isabet
işti
kafamı
kaldırmak
kanlı
kimler
kokusunu
kullandığı
kullanma
kullanmaya
kullanılan
kullanıyorum
kızının
kış
masada
mecbur
misafir
olmadım
olmayacağını
otelde
pisliği
riskli
rÃ¼Å
sent
soruları
suÃ
söylemelisin
sözler
sür
taşıyan
tersine
yapmıyor
yararı
yazıyordu
yaşama
yerli
yollar
yolları
yıllarca
Ölmek
çalmaya
çağırın
üstündeki
İnkar
İşleri
Şehrin
##ain
##alısın
##atlar
##dirler
##dığınız
##esine
##eğe
##ildim
##ish
##iyorsunuz
##iç
##kal
##landığını
##larımla
##leşmiş
##lis
##llo
##log
##madığı
##mel
##mlar
##onsantre
##rde
##sar
##sindeki
##sy
##sındaki
##sındır
##tal
##tion
##tiğimin
##tuğu
##tuğun
##yemez
##zaman
##ğümü
##ıyorsunuz
##ışık
250
99
AP
Adrian
Ashley
Aziz
Babanı
Başım
Bebeği
Canını
Cesedi
Domuz
Düşün
Earl
Gir
Harvard
Holmes
Kafam
Kımıldama
Marvin
McGee
Mitch
NasıI
Nelson
Neymiş
Rahibe
Ronnie
Samantha
Santa
Suçlu
Sör
Watson
Yürüyün
aklımdan
alarak
alınan
anlaşılan
arabayla
arkadaşımı
arkadaşımın
atar
ayrıldı
açıklamada
bahane
başardın
başlarına
buluyorum
buradaydı
buranın
burnunu
desem
değiştir
diyoruz
dostu
duman
durdurmaya
dönmeliyim
düşündük
erkeğe
fotoğrafını
geleneksel
gelmeyecek
gitmeyecek
görecek
görüyoruz
günlüğüne
güçleri
hapis
hmm
hükümeti
hırsızlık
ihlal
ima
isteriz
isterler
işle
işlerim
kanıtı
kardeşimi
katıldı
kimseler
kokain
kolunu
madem
mahkemede
minik
miydiniz
neymiş
nişan
okuma
ot
oynamayı
oynayalım
oyuncusu
ruhunu
savaştan
saçmalığı
sağa
sağladı
sebebini
sizsiniz
sonunu
tır
uzmanı
veremeyiz
verirsin
vermeni
yalvarıyorum
yararlı
yasadışı
yledi
yönde
yüzük
zahmet
âşık
çalışmış
çete
çocuklarını
öfke
ıslak
şuan
##AN
##adde
##alin
##ash
##bla
##diğiniz
##düğü
##dırmaya
##endi
##erde
##etleri
##fı
##ita
##kla
##laşan
##lenir
##lerimizden
##liğinin
##lum
##mm
##nizle
##raya
##rıyorum
##siydi
##taj
##tein
##ui
##uyorlar
##vra
##yebilirsin
##zdeki
##ülmüş
##ülür
##üsü
##ğuna
##ılıp
##ırsa
800
Ahh
And
Anneni
Arama
Berlin
Büyükanne
Caddesi
Cameron
Dahası
Dana
Dış
European
Gitmeliyiz
Görüyor
Hoşçakalın
Jules
Kendinize
Kirk
Kredi
Kurbanın
Morris
Müslüman
Raymond
Rita
Sakıncası
Sesi
Teslim
Yapmam
adalet
adıyla
affet
alanda
aldığın
aralar
arkadaşına
arkaya
av
açan
açıklar
bahsettiğini
bakacak
başardım
başınıza
bisiklet
biziz
bulduğumuz
buluşma
bölgesi
bölümünde
bırakıyor
cömert
derse
doları
döndüğünde
dönme
düşecek
düşer
elinizde
endişeleniyorum
etsem
fakir
fikirde
fırtına
geldiğiniz
gelmedik
gemiyi
geçiyorum
gözler
gücün
gümüş
hakaret
hazırla
herifi
hız
ibadet
ihbar
imkânsız
inanabiliyor
indirdik
istihbarat
iyiye
kabus
kamp
kanıtlar
karşılığı
karşılığını
karşın
kasabada
kayıtlarına
kişiyle
kolu
konuşayım
konuşup
konuşuyoruz
kullanın
kurabiye
kurdu
kurtarma
lu
mısır
nasılsa
odama
ofisi
oğlunun
peder
petrol
prenses
saklı
saldırısı
sayede
sesli
silahla
sistemini
sizlere
stres
söylediklerini
taklit
tanesini
tarif
tatile
terörist
ti
toplamak
töreni
uyumak
veririz
vermiştin
vurdun
yaparsam
yavaşça
yaşamış
Çıkın
çıkarsa
çıkmam
çıktık
öldükten
ölümünü
ömür
üzereyim
İşim
şanslısın
şekil
şerif
şirin
##NA
##acaksınız
##agon
##ax
##ağına
##bek
##cim
##des
##deyken
##ekler
##emeyecek
##etli
##gel
##gı
##hal
##ight
##inizden
##irken
##iyi
##larımıza
##layamam
##laşın
##ldü
##leşmesi
##lur
##mediği
##mediğim
##nes
##nge
##non
##nuzu
##onun
##pat
##pı
##rita
##riye
##sky
##stein
##sÄ±nda
##tay
##tları
##tmiş
##tüsü
##tınız
##ulu
##uluyor
##wan
##yar
##yüp
##ülüyor
##ğumda
##ımıza
2009
33
Aptalca
Avustralya
Aşağıya
Bailey
Big
Canlı
Cesur
Clyde
Cumhurbaşkanı
Duke
Fox
Geceleri
Gördüğün
Hastaneye
Hı
Işık
Joan
Kafanı
Kamera
Karın
Korkuyorum
Lemon
Makedon
Manhattan
Motor
Nefret
Neredeydin
Neyle
Philip
Phoebe
Rahman
Saldırı
Sağlam
Soru
Southeast
Teddy
Winston
Ye
Zack
aciz
adamlara
ailesine
aklı
alamam
almıyor
amaçlı
arkadaşlık
avukatı
babamla
bakıma
başladılar
başlayacağız
başlayın
bilgiyi
bilin
birbirinizi
bıraktığı
cezasını
değiştirdim
diz
durmak
durumuna
duyduk
dönemde
elmas
eskisi
ey
eşim
gidebilirim
gidiyordu
girebilir
gitmiştim
görevde
haftalık
haftaya
haklıydı
heyecanlıyım
hikayeyi
hop
isimleri
istiyormuş
işçi
kartını
kaybolmuş
kayıtları
kazaydı
kaçmaya
kaçıp
kağıdı
kendinize
keser
konuşuyorduk
korkmuyorum
koruyucu
koyacağım
ları
meşhur
nevi
niyetim
okudun
olabileceği
olacağımı
olayları
paramı
paramız
parçalara
planım
rahmet
robot
sağla
söylediğine
söylemiyorsun
sırt
tanığı
tanış
telefona
vermeyecek
yaptÄ±Ä
yatmak
yağ
yetersiz
yürüyüşe
Çıkarın
ölüyorum
İnsanın
İstediğini
Şanslı
##abileceğimiz
##ac
##ando
##ari
##arsa
##asına
##cusu
##cını
##diğinde
##eceğimi
##ella
##ena
##fak
##gesi
##hanede
##idir
##imle
##iti
##iyana
##kânı
##landığı
##larımda
##laşıyor
##leceğini
##lerimizin
##lini
##lir
##liÄ
##lmüş
##lıyordu
##lığımı
##mat
##ment
##muzun
##mıyorlar
##nci
##nini
##rdığını
##reti
##rgo
##rmanın
##rması
##rom
##srar
##sul
##tz
##undan
##öz
##üler
##üt
##ğinizi
##ırken
##ışı
##şme
##şti
##ştırıyor
44
Adaptation
Adımı
Alicia
Amerikalılar
Anlamıyor
Ardından
Askeri
Aşırı
Başardık
Cadılar
Deb
Dwight
Ertesi
Finn
Fotoğraf
Geldiğin
Grey
Görünen
Hayatının
Hill
House
Kimden
Kimmiş
Komisyonu
Koruma
Lane
Man
Matthew
Nedenmiş
Nesin
Not
Onda
Oğlun
Pierre
Polonya
Rabbinizin
Rory
Scully
Seksi
Sid
Teksas
Teyze
Willie
Yapmayın
Yazık
Yeterli
Yüzünü
alabiliriz
anlatır
anlayabiliyorum
anlayamadım
arıyorlar
avuç
açma
açıklaması
ağacı
baktığımda
biliyorduk
birimiz
borcu
bırakalım
cok
deyin
durdum
düşünmedim
düşünüyordun
elleri
erkenden
espri
evladım
gelirdi
geminin
gidiyorlar
girme
gitmez
göklerde
gönderdim
gördüğünde
görünür
görüş
götüreyim
güzeldir
hakkını
haklıydın
hallederiz
hattı
ho
hükümetin
ilgilenmiyorum
iseniz
isteyeceğim
izlerini
izleyin
kalırım
kamu
karısını
kendilerinden
keyfini
kimliği
kitabın
koç
kurtaracak
kötüydü
listesini
muayene
olmamıştı
otomatik
paramparça
patladı
randevum
riski
rolü
röportaj
saatten
sabaha
sapık
servisi
sesleri
silahlar
sorumlusu
süreci
sıradaki
tahta
tarihinde
uydu
yapabilecek
yapmıştı
yaramadı
yazmak
yaşanan
yiyeceğim
yüzüğü
zorlu
zorundasınız
çalışmıyorum
çalıştık
çağırdı
çekilmiş
çıkaracak
çıkınca
ödülü
ölmedi
önünden
öylesine
üyeleri
İkisini
İlaç
İndir
İşimiz
şüpheliyim
##IK
##abalık
##abe
##amadık
##asyonu
##av
##ağa
##cuk
##dayız
##diriyor
##düğün
##eau
##ebileceğim
##ebileceğimi
##emeyeceğim
##erini
##erry
##esin
##ett
##fus
##hul
##iden
##iyer
##lamıyorum
##lastik
##lediği
##lerimden
##llah
##lme
##miştin
##mus
##müyorum
##ndık
##omünist
##ortakal
##ory
##oto
##pları
##rar
##red
##rene
##rilmiş
##rün
##sten
##tiğini
##tli
##ux
##vy
##zel
##çları
##ölge
##ülmesi
##üyle
##ıcısı
##ıdır
##ırdı
##ıyı
##şen
37
600
Allen
Angel
Ateşi
Ağlama
Baker
Biriyle
Booth
Dale
Delirdin
Denise
Dev
Elveda
Evan
Evlilik
Grup
Haftada
Harikaydı
He
Kendisini
Kong
Kont
Kızımı
Normalde
Onca
Orda
Ordusu
Rabbinizden
Ruth
Sarı
Sonuç
Sydney
Tarih
Yabancı
adet
alanına
altını
alırken
analiz
ardında
arıyordu
bahçe
bağ
başladığı
başlama
beden
benzeri
bilgisi
birilerinin
birlik
bugünkü
bulma
bulmuşlar
cenaze
cennete
davada
dedikodu
dertte
direkt
diyebilirsin
diyeceksin
duyan
döneceksin
düzelecek
düştüm
dışındaki
etkilendim
etkisiz
ettiğinde
evinin
farz
filmin
geceye
gerçekleşti
gerçi
geçirdik
geçirme
görün
görüşmesi
harcadım
hepsinin
imha
imkan
incitmek
isimli
isteği
içiyorsun
kader
kapıları
kardeşimin
karşınızda
karşısına
kata
kazası
kelimeyi
kimsiniz
konuşmuştuk
kullanmayı
köy
kılıç
kızlarla
minnettar
muhakkak
mıydınız
ofis
okuyor
olacaksa
olduÄ
partide
peşini
proje
psikopat
re
sakla
sesler
söyleyerek
tadına
tartışma
teyze
teşvik
ticaret
toplu
treni
verilecek
vermedin
virüs
with
yakaladık
yanıyor
yapacağımız
yapamayız
yapamıyorum
yapmıyorsun
yapmışsın
yaşta
yetenek
zamanını
çantayı
çarptı
çağrı
çekildi
çekmiş
çözmek
çıkart
çıkmasını
Şirketi
##alim
##azı
##bağa
##bileceğimiz
##bilirsiniz
##bın
##cie
##cilerin
##cıları
##daydı
##dini
##dirmek
##ele
##emiyor
##enli
##ert
##eğin
##hai
##hri
##hu
##hşet
##illa
##iyordum
##jen
##key
##kların
##lanıyorum
##laÅ
##lde
##lerinizin
##lmadan
##lmek
##lukla
##mamıştım
##meler
##mezler
##neye
##nmıştı
##nunu
##og
##oku
##ph
##port
##pot
##py
##retmek
##ride
##riyorsun
##rus
##siklet
##sundur
##tinde
##tirmek
##tmedi
##ttiğim
##ttu
##yamam
##Ä±nÄ±
##çılık
##ümüz
##ırt
##ırın
##ştim
1000
Alın
Amin
Anneme
Ayı
Babamla
Beyefendi
Bilgi
Bizde
Bok
Burns
Castle
Chandler
Colin
Dolar
Elimizden
Gemi
Gidiyor
Harper
Hatırlıyor
Hedef
Hepsinin
Iütfen
Joel
Kal
Lana
Lloyd
Mia
Ortak
Palmer
Paula
Rab
Reuters
Sensiz
Söyledim
Söyleyecek
Topu
Tuvalete
Uzay
Vanessa
Wyatt
Yüzüne
adamımız
adli
aktör
aleyhine
almalıyız
almamız
alsın
alıcı
anlamıyor
anlıyorsun
aramış
açlıktan
ağrısı
bahsetmiyorum
bakınca
başladığını
başın
bilmeyen
bire
biçim
bombası
bırakmayacağım
bıçağı
dansı
denizde
değmez
dili
dilim
dilini
doktorlar
doktoru
dosyaları
durumdayız
düzey
düşünmeden
edildiğini
etmene
flört
gelenin
gelmedin
gemiye
getirdik
geçiş
geçtiğini
gidince
girelim
gördüğünüz
görmeden
götürüp
gücüm
hayran
herşeye
hoşgeldin
hoşça
ilişkiler
inanın
istediniz
istediğine
istediğinizi
içini
işlere
kadınım
kamyon
kapısı
katına
kaçırma
kesilmiş
konuşmuyor
kovboy
kullandın
kullanıyorsun
kurtardım
kuruş
kıyafetler
kızımı
maaş
ndeki
odayı
olabildiğince
olduğuma
olduğunca
olmamalı
ordusu
ormanda
ortağı
oturuyorum
sabahın
senle
sihir
sinyali
söylerken
tamamıyla
tatlısın
televizyonda
transfer
türü
vereceğini
veriyorlar
vuruldu
vuruş
yapabileceğin
yarattığı
yaşadığım
yaşındaydı
yemeğinde
zamanla
zamanları
Öyleydi
Özgürlük
çabucak
çıkacağız
çıkmadan
ödedi
ölmeden
öncesine
ülkeyi
İntihar
ırmaklar
##EK
##abı
##akal
##ald
##ars
##atmış
##aşık
##bildin
##boy
##buk
##bına
##cekler
##cinin
##ciğer
##dal
##deni
##deyiz
##diyor
##ebe
##ekli
##ekreter
##emlerin
##eo
##evi
##gram
##imdir
##irdi
##itz
##lanmadı
##lanmaya
##laus
##lendiriyor
##lendiğini
##leniyorum
##likleri
##lmesini
##low
##lta
##madığın
##mazdım
##mede
##mekte
##meyeceğini
##mont
##muza
##müzü
##nabilir
##naya
##que
##rap
##rdü
##ress
##ruma
##ruz
##sidir
##sör
##süne
##tirdi
##ukla
##uklu
##unt
##unuz
##wen
##yabilecek
##yacaklar
##yde
##yete
##yung
##zim
##zsen
##âm
##âr
##ümün
##ürü
##ıldığı
##ılıyorsun
##ıç
##şırken
Adi
Amiral
Angie
Araştırma
Asya
Bankası
Başlıyoruz
Beckett
Bell
Bernard
Biliyorsunuz
Christine
Cinsel
Craig
Debbie
Dokuz
Douglas
Elimi
Garcia
Geldiğiniz
Genellikle
Gitmemiz
Gördüm
Hatırlıyorum
Hayvan
Hazırım
Isaac
Karl
Keith
Kilise
Kitty
Konuşma
Kör
Kıbrıs
Lex
Marco
Mikey
Miranda
Naomi
Nerde
Olduğun
Otel
Oğlumu
PHP
Ricky
Roman
Seninki
Steven
Sullivan
Sun
Tara
Telefonda
Troy
Vic
Wade
Yardımına
Yolda
alırlar
anki
anlaşmaya
anlaştık
annesini
arar
arkadaşımla
açtım
babana
bakarız
başlamıştı
bekler
benziyordu
beynini
boka
boşuna
davranmaya
dayanamıyorum
değersiz
dostlarım
dönen
dönmeye
dönüyoruz
düşünecek
dışarda
etmeme
etmiyoruz
eşya
galip
geleceğin
gelişmiş
geçit
geçiyordu
geçme
gibiyiz
gidersen
gördüğümüz
görme
göründü
gözlerimi
güney
halen
hapisten
hataydı
hayali
ikram
ilgileneceğim
indirin
iniş
isteyecek
izlemeye
içiyor
işlem
kahverengi
karışıklık
kastediyorsun
kazanmaya
kgm
kimyasal
komuta
konusunu
kumar
köşede
kırılmış
kızlara
nice
okulun
olumsuz
oturmak
pay
planları
potansiyel
resimleri
sağır
sessizce
seviyede
sevmedim
sokağa
suda
söylemekten
söylemeni
sınırlı
tanımıyor
tekrardan
telefonun
temizlik
terfi
travma
tutuyorum
verecektir
vermeliyiz
yanınızda
yapardın
yapmadık
yapmanız
yapılması
yaratıcı
yedik
yeme
yetki
Ünlü
çalışmam
çalışın
çalışıyormuş
çevir
çıkması
önümde
üstümden
İntikam
İyiydi
Şans
Şükürler
şerefsiz
şov
##aat
##aba
##aman
##atan
##ayan
##bs
##cük
##cığım
##eka
##elik
##enis
##est
##estivali
##igh
##ika
##ilde
##ildiğini
##ill
##ilmez
##indi
##irse
##ito
##işme
##kilerin
##lantı
##lari
##larınızdan
##laşmayı
##ldığı
##lerindeki
##leyerek
##leş
##lm
##luğuna
##lıyorlar
##mamızı
##mesinden
##mik
##müzün
##müştü
##mını
##nesi
##nmasını
##nny
##now
##ome
##ook
##orsan
##ovan
##partmanı
##rdun
##rici
##rika
##rilen
##rla
##rsam
##tip
##tmeni
##tmesi
##ttin
##tıp
##ulacak
##ulları
##yeti
##ymışsın
##zlık
##ölde
##ırda
##ştın
43
65
700
Aa
Arkada
Arnavut
Babama
Bakan
Birşeyler
Buffy
Bulgar
Chang
Defolun
Diana
Diego
Elinden
Et
Futbol
Fırtına
Gördüğünüz
Hapse
Hastanede
Hector
Hiçbirşey
Hırsız
Jin
Juan
Kafamı
Kaliforniya
Kardeş
Katılıyorum
Kaza
Kedi
Lauren
Lawrence
Li
Lindsay
Moskova
Param
PerÅ
Quinn
Rabbinden
Rabbiniz
Ruslar
Rüzgar
Simpson
Sinyal
Sola
Song
Test
Uygun
Vali
Vietnam
Yakalayın
Yalancı
Yapabileceğim
Yaşamak
Yeryüzünde
Yeteri
aldığımız
aldığında
anlatırım
arkadaşlarını
avcı
ayrılma
açıklamak
açıktı
bakarsanız
bakmayı
beğenmiş
bilemedim
bilimsel
bitirelim
borcum
bulamadık
bölgeyi
bıraktık
cevabını
cumartesi
deneyin
denilen
değerini
diğerine
dolaşıp
durmadan
durumdayım
durumunu
döneceğiz
dışarıdan
ekledi
embe
emniyet
erkeklerle
ezik
eğlenceliydi
felç
gelirler
gereği
geçiriyorum
giderdi
gidersin
gitar
gittiğinde
göreve
görülüyor
görürse
gözlü
güneşin
hafife
haricinde
hayalini
hayvanları
hâle
ikinizin
ilişkileri
ilişkiye
isyan
içtim
işimize
kadınsın
kaldırın
kalem
kalktı
kalıyorsun
kapatın
karımı
korkmuş
koyar
kullandı
kutlama
küçükken
madalya
makul
meclis
meşgulüm
mola
mutfak
müdür
olmayacaktır
olsak
orijinal
ortağım
oyna
panik
paylaşmak
pazarlık
pembe
pencere
saatlerde
sahipleri
sahipsin
salonuna
sevgilisi
seçeneğimiz
seçtin
simdi
sonuçlar
söylemeden
söylerler
söylesene
tamamlandı
tarafını
toplama
toplayıp
toprağa
tutma
uçan
vurulmuş
yakıt
yaralı
yavrum
yazılmış
yaşadı
yedek
yeteneği
zehirli
Üzerine
çaldın
çaresiz
çatlak
çıkarıyor
öldürüp
öz
İhtiyar
İmparator
İrlanda
İstanbul
İçlerinden
ındır
Şehri
Şirket
şefi
##AR
##ER
##ON
##abilirdim
##acakları
##acağından
##aiz
##alanına
##ani
##ağını
##bak
##biliyorsun
##bot
##car
##cağımı
##cağından
##cem
##cer
##ceğinden
##cho
##cıların
##danı
##diğinden
##doğu
##ebiliyor
##eceğe
##ello
##hine
##inal
##ity
##ixon
##kol
##ktı
##kül
##lalım
##lanmam
##laştım
##lene
##leşmeye
##lit
##mokrasi
##müşsün
##mıyorsunuz
##nell
##nizden
##nmayı
##pu
##ristal
##rli
##rulmuş
##rüyor
##set
##sever
##sip
##sko
##teye
##udu
##via
##yana
##ydum
##yseniz
##yüz
##zit
##Ü
##çete
##îm
##üre
##üresel
##üyorsun
##üğü
##ğara
##ğil
##ğimde
##İN
##ılma
##ıyım
2001
34
52
Ailemi
Anlamıyorsun
Anthony
Atla
Açıkça
Basın
Benny
Bil
Bilirsiniz
Binlerce
Brooke
Destek
Duyduğuma
Düzgün
Etrafa
Eğlence
Gerçekte
Gloria
Graham
Grant
Gördünüz
Hakkında
Hatırladın
Hatırlamıyorum
Joy
Kira
Konseyi
Kupası
Kurban
Kızgın
Melanie
Monroe
Olağanüstü
Ortada
Pizza
Reid
Sakinleş
Sammy
Sevdiğim
Sheldon
Sürtük
Tavuk
Turner
Vahşi
Yanına
Yemeğe
Yeri
Yüzde
acıyı
adresini
akşamki
alacağını
alamadım
arkanı
aslı
atan
açıklığa
açım
bağış
bağışla
bekleyeceğiz
benle
bileti
bilmeden
birbirinize
birisiyle
boku
borçlusun
bulduğu
buluşuruz
buradasınız
buyur
bölgeye
davrandım
dayak
dağ
dibine
diğerlerini
doların
dolaşıyor
dönüşü
düzenlenen
düşününce
edebilirsiniz
edeceksiniz
eleman
emanet
fikirleri
gazeteci
geciktim
geldiğim
getirip
geçsin
geçtin
geçtiğimiz
grubun
gökten
göreyim
görüntüleri
gösterisi
gözünde
günkü
hakkına
hamle
hazırlayın
hedefi
helak
hikayesini
hissediyordum
ifadesi
inatçı
indirim
istemişti
istersem
iyiler
kadınlardan
kanıtlamak
katilin
katılacak
kaynak
kazanacak
keyif
kilisede
kitabını
koyup
kullanılmış
kuşu
kıldık
kısmında
lara
madam
mahvettin
miras
mutsuz
okuyorum
olduktan
orman
oyuncağı
oyunun
pantolon
pardon
pas
saatini
salonunda
say
sayende
sensiz
seversin
seviye
sokaklarda
sonradan
sudan
surat
söylersem
takas
teker
that
uzaylı
vermişti
yandı
yanındaki
yapmasına
yapmıyoruz
yapıldığını
yazın
yerle
yiyip
zevkti
Öp
Üniversite
çetin
çevresinde
çıkaracağız
çıkıyorsun
öldürecekler
öldürülmüş
öleceksin
ölmeyi
ölürsün
özgürlük
öğrendik
üvey
İkincisi
İslam
İşten
şansını
şehirden
şeyimiz
şuradaki
##AT
##BC
##DA
##X
##ack
##ader
##aha
##air
##atlak
##bil
##bra
##caksınız
##cil
##cin
##cum
##dedildi
##dersiniz
##dyo
##ida
##ih
##ila
##ileri
##inda
##işe
##işti
##jinal
##jo
##klık
##ktir
##kum
##kân
##lanmıştı
##laştırmak
##laşıp
##lip
##lleri
##lmalı
##luktan
##lumbağa
##lıydın
##makla
##miştik
##nlik
##nme
##nında
##ord
##osisli
##oster
##ove
##oyun
##partman
##ratik
##rbiden
##rdiği
##rell
##rep
##rmadan
##ronik
##rırım
##sk
##sla
##til
##tıkları
##uru
##uyordum
##uyu
##vası
##Ä±lan
##Ä±na
##Ä±s
##çu
##çısı
##üf
##ünüz
##ürük
##ımla
##ırsan
##ıçımı
##ığın
Adası
Aldım
Andre
Arkanı
Babasının
Bakıyorum
Bildiğin
Birincisi
Boyd
Bud
Büyükbaba
Caleb
Dee
Dexter
Doktorlar
Dördüncü
Eşyalarını
Fiona
Franklin
Gergin
Gösteri
Günlük
Güvende
Haberler
Hawaii
Hee
Hunter
Janet
Jeffrey
Jung
Kafa
Katherine
Kraliyet
Lena
Leon
Lordum
Marge
Mars
Masa
Ned
Nicole
Pat
Pes
Peygamber
Piper
Sandy
Schmidt
Seattle
Sensin
Servis
Sharon
Sizde
Sokak
Taş
Ters
Ticaret
Yapacağım
Yasal
Zeyna
adamlarını
ailemin
aileye
aklında
anladı
anladınız
atalım
ağzından
basketbol
başardı
başlasın
beyni
biriniz
bulduğum
bölümlerinde
büyükanne
dakikalık
demeli
deneyeceğim
deyip
dolayısıyla
dosyası
du
durdurun
durumlar
duygularını
döndük
dünyasında
düşünerek
düşüp
edersek
elli
etmekte
favori
fikirler
geceden
gelemem
gelmemi
geçeceğiz
gitmiyoruz
gitsen
giyip
gömlek
görmemiş
göründüğünü
görünmez
görünmüyorsun
gözlerin
gözüne
güce
hallet
hiçbirini
ibne
ifadesini
ikisinin
ilgilenirim
inip
istemiyordum
içlerinden
içtin
işimizi
kafama
kapısını
karakter
kasabaya
kazanır
kaçta
kaçış
kendimden
kişiden
klasik
komşu
kontrolden
konuşmalıyız
konuşmanın
korkutmak
kullanmış
kuralı
kurulu
kılan
kırdı
kızların
kızıl
macera
manzara
masanın
mesafe
muamele
my
nişancı
numaraları
odamda
ofisinde
oksijen
olanın
olağan
olmayın
olmuştum
olurdun
onlardır
ortalama
oynuyorsun
parçasını
pizza
planını
porno
sakınca
sanatçı
sandalye
sarışın
sebepten
seferki
sevdin
seÃ
seçimi
söylemeyin
söyleyelim
süresi
tahrik
takdim
tanıştığım
uçup
varsın
vefat
veremez
vermemi
vuracak
yanımızda
yaparsa
yapmanın
yarışı
yattın
yavru
yaşar
yaşıyordu
yemekten
yolumdan
zararı
Çinli
Özgür
çalar
çalıntı
çalıştığın
çapında
çiçekler
çocuksun
çıkaracağım
çıksın
üstünü
üzerimden
İmkansız
İşimi
ışıklar
şantaj
şeref
##12
##Iı
##LAR
##TV
##ahsi
##aklı
##amayacağı
##asın
##bim
##biri
##ciğim
##con
##dayım
##debiliriz
##dediyor
##dırdı
##ea
##eb
##eceksiniz
##edi
##ekreteri
##ezar
##ges
##gon
##ildin
##ille
##inler
##klerin
##kun
##lana
##lası
##layacaksın
##laşacak
##laşıyoruz
##leniyorsun
##leriz
##leştirmek
##liyoruz
##lya
##lüğüne
##makta
##mburger
##memek
##mesin
##miyordu
##miyorsunuz
##mün
##ndayım
##nder
##ndığı
##nzo
##oks
##ole
##omen
##onel
##oni
##orma
##oviç
##own
##oyadı
##ril
##ristina
##rleri
##rmaz
##ross
##rsin
##rıyordu
##siyonu
##sma
##sunlar
##sunun
##timi
##tisi
##tıları
##tırma
##vetli
##vil
##yl
##ymişim
##yona
##ysanız
##zse
##Ä±ndan
##çiye
##ğleniyor
##ğımdan
##ıran
##ırdın
##ıs
##şun
##şığı
2002
38
Afiyet
Ally
Amir
Anahtar
Anlayamadım
Antonio
Başın
Başından
Bense
Beğendin
Bilmiyordum
Boris
Brenda
Brick
Britanya
Bunlara
CD
Cal
Crane
DJ
Derken
Donald
Duncan
Elektrik
Giriş
Hanna
Hastanesi
Hoşuma
Hırvat
Junior
Kadının
Kendinden
Kendisine
Kıyamet
Lenny
Ma
Meclis
Murray
Nerelerdeydin
Nikki
No
Okuldan
Okulu
Olanları
Olayı
Otursana
Phillip
Reggie
Romeo
SETimes
Sandra
Serbest
Sevgi
Sevgililer
Sevimli
Sherman
Spock
Tebrik
Temel
Uyku
Vakit
Veronica
Violet
West
Yakışıklı
Yapabilirsin
Yaptığımız
adamdır
ailesiyle
alarm
almalısın
almanı
anlatacak
arkasındaki
atla
aya
ayarladım
azalıyor
açabilir
açıkçası
bahis
basıncı
bağla
bağışlayın
benzediğini
bilinmeyen
bilmediği
bilmesini
bilseydim
birbirini
bitene
bitirdi
bitirdim
biyolojik
boşanma
bulmayı
bulunmak
burun
büyücü
büyüdüm
canın
dağlar
desteği
deyişle
değişim
dileriz
dinliyorum
diyordu
duyar
elma
engellemek
esir
evimize
eşek
fidye
fikriniz
filmde
fotoğraflarını
gelmelisin
getirdiler
getiriyorum
girmeden
gittiniz
gittiğimde
göndermek
göstermeye
güzeller
habersiz
halledelim
hangisini
hatırla
hayırlı
hazırlık
he
hesabı
hissettiğimi
ilgilen
inanmıyor
inde
istemeyiz
istiyordun
izniyle
içerde
işgal
kalanlar
kaldınız
kalkma
kalmam
kalırsın
kaçık
kaçıyor
kişilerin
kolaydır
korkma
koruyacak
kritik
kriz
kulübe
kum
kuvvet
köprü
kıl
kızsın
melekler
muhtemel
neredeydin
numaram
odana
ok
olayda
olmalıdır
olmama
olmuşsun
olursunuz
onay
oynadın
paranı
pencereden
pilot
problemi
profesör
roman
saatin
sahiptir
saklamak
savaşçı
sevdi
sevmek
sok
sonuca
sonuçlarını
sun
söylendi
söylerdim
sıkıldım
sın
sıvı
tanı
tanıyoruz
taraflı
tavşan
tutuyorsun
unutmayacağım
unutmuş
uğradı
verilir
vermiyorsun
yakalamaya
yanmış
yapabileceğimiz
yarayabilir
yarışması
yaşamı
yoluyla
yöntem
yükü
zamanlı
Çift
Çılgın
Örümcek
çal
çaldığını
çelik
çıkarmış
çıkmalıyız
çıktığı
önden
örümcek
öteki
özgü
öğrencisi
ülkeden
ümit
İnternet
İsveç
İtiraz
İzle
şahsen
şartlar
şişko
##TA
##abilen
##ahat
##ahin
##akam
##amayacağız
##and
##antaj
##anya
##arsan
##aul
##baya
##bini
##cia
##demi
##deniz
##dıran
##dığımda
##elisin
##epede
##ersin
##eyfine
##gy
##hia
##hn
##hı
##ihinsel
##ins
##izem
##jisi
##kik
##kinden
##ladığın
##lamadı
##lanmasını
##lay
##lda
##lerimize
##leyeceğim
##leği
##lidi
##lmam
##lıdır
##lıyoruz
##meyeceğiz
##mie
##minin
##miyordum
##mına
##ndın
##nÄ±
##nç
##old
##omisyon
##ost
##ovuldun
##peye
##rildi
##riyorum
##sıydı
##ted
##teyim
##ther
##tici
##tmen
##tmiyor
##uncu
##vcı
##ws
##yabilirsiniz
##yeler
##yelik
##yenin
##yenler
##zik
##zını
##ölük
##ğunuz
##İR
##ılmaya
##ımızda
##ısı
##ıydı
##şacak
##şini
##şla
##şmayı
2011
Alfa
Alison
Anladığım
Arayan
Artı
Babana
Banyo
Beta
Black
Broadway
Bugünlerde
Burke
Ceset
Chase
Diyelim
Drew
Eline
Emniyet
Endişelenmeyin
Erica
Evden
Gabrielle
Gelmek
Geçici
Gitmeden
Gitmiş
Grayson
Haftaya
Hakim
Haksız
Harrison
Hastane
Hediye
In
Jenna
Joon
Kaçın
Konuşacak
Kramer
Marina
Min
Neal
Paige
Pilot
Poirot
Rablerine
Randall
Resim
Rosa
Takımı
Tanık
Teal
Ulu
Yatağa
Yavaşça
Zamanında
aileden
ailemi
aittir
alev
anladık
anlamam
aramayı
arkadaşız
artıyor
arıyorsunuz
ateşin
atma
atıyorsun
ayarla
ayrılmış
açacak
ağrı
babalık
bahar
bahsediyorsunuz
baktın
bağlayın
başlayacağım
beklerken
bilmiyorlar
binayı
buradalar
casus
cin
dakikan
deney
denk
derde
devreye
deyince
dostun
duyamıyorum
duyunca
edenlere
edenleri
edilmiştir
ertesi
geldiğince
gemiden
gerekebilir
geÃ
gibisiniz
girdik
giriyorum
göreceksiniz
göremiyor
görevim
görevli
görmelisin
gücüne
güzelce
güçlüdür
haklısınız
hanımlar
hapishaneye
harcama
hatırlamak
hatırlattı
hazine
helal
hesaba
hesabını
hissi
hoşlanır
hoşnut
ilgileniyorum
indi
içer
içip
işinden
kana
kararlı
katından
kavmi
kaya
kaçar
kiliseye
konuştunuz
kopya
korkun
korkutuyor
koruyor
koyuyorum
kullanabilir
kullanacağım
kurbanı
köpekler
kıldı
kırmak
maalesef
mahvetti
malzeme
masaya
matematik
medya
meseleyi
namaz
nesin
no
odur
ofiste
okuyorsun
olduysa
olduğumda
oluyoruz
oynarken
piyano
sanma
satmaya
savaşmak
sağlığı
sokmak
sorguya
suçlama
söylersen
sınıfa
sıraya
tamamı
topluluğu
uyarmak
uzaklıkta
uğraşmak
vaktinde
yakaladın
yanıp
yapmakta
yapmamızı
yaşamayı
yaşayacak
yaşındaydım
yiyeceğiz
yön
yürüyüş
yüzünde
yıI
zamankinden
Çekici
Üvey
çaldım
çatı
çiftlik
çözmeye
çıkmıyor
çılgınlık
ödeyeceğim
öldürebilir
ölmesi
ölmeye
ötede
ücreti
ürkütücü
ürünü
üste
İstiyorum
ışıkları
Şirin
##40
##Name
##SI
##Sİ
##afe
##ake
##arla
##atura
##ağında
##bby
##cal
##cilik
##demli
##deriz
##diç
##dığından
##ef
##endim
##ex
##eş
##fat
##fir
##gene
##hut
##imizden
##inle
##iri
##istik
##iter
##iyetini
##kilere
##kor
##lahi
##lai
##laksız
##laşmaya
##laşmıştık
##laştırma
##leyebilir
##lihsiz
##lisi
##lmamış
##lmemiş
##lores
##mada
##mann
##masının
##melisiniz
##menizi
##mesinin
##miyim
##muştur
##nar
##nor
##nını
##obil
##ralı
##rdek
##rmayın
##ros
##rton
##rttı
##sünden
##tana
##teresan
##tten
##umun
##une
##upa
##usun
##uşturmak
##yebiliriz
##ymaz
##yorduk
##zsam
##çesi
##çlar
##çlı
##ön
##üşü
##ıcık
##şer
Adama
Ambulans
Artie
Ağzını
Babanla
Buck
California
DVD
Dallas
Diğeri
Diş
Enerji
Etkileyici
Etrafına
Felix
Go
Hukuk
Jüri
Kennedy
Komutanım
Konuyu
Korku
Kulübü
Küçükken
Lakin
Manny
Melekler
Miguel
Miss
Mona
Neredeler
Neresi
Nicky
One
Ormanda
Otobüs
Oğlumun
Patty
Rex
Ruby
Rüya
Sert
Sessizlik
Silahlı
Söyleyin
Tanıdık
Tehlike
Tess
Thompson
Tokyo
Trafik
Tren
Tıbbi
Wow
Yang
Yorgun
acilen
af
alamaz
almasını
anahtarını
anlattın
anlaşması
annesine
aptallık
arabalar
arabamı
aracılığıyla
ayetleri
aÄ
açmaya
babanla
bakmam
bastı
bekliyordun
belgeleri
belgesi
bildiğiniz
bilemem
birtakım
boşver
bulamazsın
davrandı
dayan
dediklerini
dediğimde
delisin
denizci
değiştirme
dibinde
dilek
diyebiliriz
doğa
doğu
dönmedi
dünyası
düşündüğü
endişeli
erkekleri
eseri
etmezler
etnik
evlerine
eşsiz
gelerek
gelirken
gelmeyi
genetik
geçerken
geçiyoruz
girdiğini
gitmiştir
görmesi
görüşmeye
götürdüm
gözlerine
gözümün
günlerden
halkına
hallettim
hatırlatıyor
hazırladım
hindi
ilaçları
imkanı
insansın
istasyonu
içe
içerim
kalabilirsin
kaldırıp
kalmıyor
kanÄ±
kapıda
karanlıkta
kardeşleri
karışmış
kaybetme
kayda
kaçan
kaçtım
kaçırmış
kendimize
keşif
kiralık
kitapları
kişileri
koltukta
konuşacağız
konuşmalıyım
kraliçe
kurtaran
kurtardık
kuzeye
kül
mantar
mum
mıymış
neşeli
niyetli
notu
odam
okumuştum
olsunlar
operasyonu
otuz
oynayacak
personel
pisliğin
psikolojik
reddetti
resimler
sahibim
sahiden
saklıyor
seferlik
silahın
sinirli
sistem
sorarsan
söylemiştiniz
sırtını
tabanca
tanır
tanıştın
tedavisi
teselli
teğmen
tutacağım
tutuklama
ulaştı
uyanık
uzaklara
uzat
uğramış
uğrayıp
varlık
verecekler
vurma
vururum
yakıp
yapabilirsiniz
yapmıştır
yaratıklar
yaygın
yerlerini
yolladım
yıla
zannediyorsun
zorluk
Çeneni
Öbür
çalan
çocuklarım
çıkmıştı
ödeyecek
öldürmeyi
öncelikle
öneririm
öpmek
öğrendiğim
öğrenecek
üzerimde
İdare
İnanmıyorum
İspanyol
Şişko
şarkıcı
##IR
##abiliyorsun
##aldı
##all
##amazlar
##andı
##arrett
##balığı
##bas
##bik
##bilirdi
##bridge
##bul
##ceğimi
##cine
##ct
##dat
##debilir
##deme
##diklerimi
##dirdi
##een
##elia
##emde
##enle
##eriz
##esiniz
##etmez
##evkalade
##fik
##gal
##ikal
##ikaten
##ildiği
##ilip
##isin
##ix
##işini
##jde
##keli
##klerine
##ksi
##kyaj
##lanmamış
##lediler
##lediğini
##lemesi
##lendin
##lendirdi
##lendirecek
##lendirmeye
##leyeceğiz
##leşir
##leştirme
##lub
##luğundan
##lüğe
##lıkların
##mdeki
##mediğimi
##mektedir
##memiştim
##mezdim
##muyoruz
##mısın
##ncu
##nk
##nlardan
##nmadan
##oke
##omon
##onlar
##oon
##otka
##pan
##penin
##pos
##poya
##rabiliriz
##raması
##rdik
##rir
##rnu
##rüm
##rımı
##rından
##rırız
##sünler
##tel
##tuğum
##uyordu
##uza
##vah
##varda
##yarı
##yden
##yemeyiz
##ymışım
##yordun
##zma
##Ä±Ä
##ümde
##ütün
##ınla
##ırsam
##şak
1995
41
5000
55
AK
Alec
Allahım
Ameliyat
Batman
Başarılı
Bildiğiniz
Büyü
Carmen
Cody
Daisy
Değerli
Değilim
Dorothy
Esas
Eun
Eşim
Farkındayım
Fiziksel
Geçmiş
Gidebilirsin
Google
Hal
Hayatında
Hepinizin
Hope
Houston
Jefferson
Judy
Juliet
KaradaÄ
Küba
Kızları
Mahkemede
Masum
Melissa
Mrs
Onur
Ortaya
Pablo
Piç
Ra
Reese
Richie
Sal
Sebastian
Serena
Sezon
Sigorta
Star
Stark
Stone
Summer
Söylediğin
Süt
Tanıştığıma
Teresa
Tıp
Umut
Wallace
Willy
Zach
Zeki
ada
ailene
aklımı
almadın
anlamıştım
anlatamam
anlatıyor
antik
atıyorum
avcısı
ayakları
ayrıldık
ayrılık
azaba
açtın
açılış
bazılarını
başkalarının
başkasıyla
bebekler
bekar
bekleyebilir
bilmediğim
birbirinden
birilerine
buluşacağız
buluşmak
bunlarla
buradayken
bölgesinde
bölümünü
deliller
deliği
dersem
dinler
dinliyor
diyebilir
doluydu
dosyayı
duracak
duyduğunu
döneceğini
döneminde
dönüştü
düşünmüş
düşünsene
düşünürsek
efsane
elle
ellerine
elçi
erkeği
etmeli
ettikten
evinize
faydalı
geleyim
geliriz
gelirsin
geyik
geçmeden
geçtik
gidiyordum
gittikten
göndereceğim
gönderiyor
görmekten
görmen
görüyorsunuz
götürüyor
gül
hafıza
haklarını
hal
hatun
havlu
huh
ifşa
ilgisini
insani
insanım
iri
iyiymiş
izliyorum
içeren
iğne
kalamam
kalbimi
kaldılar
kamerası
kap
kararlar
kardeşine
karşılıklı
kaset
kelimeleri
kesildi
kocasının
kod
konusundaki
konuşabiliriz
konuşun
korkup
koydun
kullanıyorlar
kurtuldu
kutuyu
kötüdür
kızarmış
misafiri
ndaki
nöbet
odadan
olamadım
olasılıkla
onurlu
ortalığı
oynama
oğul
planlıyor
pratik
prova
saklıyorsun
sersem
seçeneği
sinemaya
sistemine
solucan
sormaya
söylemez
söyleyeceğimi
sürücü
tanıyan
telefonum
tenis
tesbih
tetiği
tir
toplantıya
ucuza
umutsuz
uyarıcı
uykuya
uyumlu
uçakta
yakala
yapay
yapılacağını
yapılıyor
yarattık
yaşımdayken
yepyeni
yiyorsun
yolculuğa
yolculuğu
yönden
yılları
zorlama
Önemi
Öğleden
ân
çalıp
çamaşır
çamaşırı
çevre
çocuklardan
çocuğumuz
çök
ölene
öp
öğrenciler
üçte
İletişim
İsmini
Şehirde
şampiyon
şanslıyım
şansınız
##14
##ET
##IM
##abileceğimizi
##acağınız
##af
##altına
##andra
##anların
##asha
##atma
##belle
##bildiğim
##chester
##dayken
##duğumuz
##dyum
##eck
##erden
##ernatif
##erzek
##fis
##gara
##gg
##gide
##gil
##hh
##hing
##hirli
##ides
##ife
##ilmesini
##imli
##iydi
##izle
##işmiş
##karlık
##kaz
##klan
##ksiyon
##ktör
##kını
##ladınız
##lamanın
##lanabilir
##layacağını
##lerimle
##lia
##likli
##linin
##lint
##liğimiz
##lton
##lukta
##lvarırım
##madığımı
##mdı
##mediğin
##metini
##meği
##mum
##munu
##müzde
##mışsınız
##ndik
##nip
##nizde
##nına
##olo
##onferans
##opa
##oyunma
##pper
##rada
##rayı
##rdo
##rganik
##riptiz
##rish
##riyet
##rmam
##rsanız
##rsen
##rup
##ruğu
##rıldı
##sbol
##side
##siyor
##sonu
##sse
##ston
##tların
##tucu
##unum
##uşmuş
##yalı
##yasa
##yün
##zbol
##ziz
##âkim
##çavuş
##ökyüzü
##ördü
##örlük
##ümle
##ğişken
##ğumuzu
##ğümüzde
##ğınızda
##ıcın
##ırı
##ışmaya
##şallah
##şeli
##ştirmek
##ştık
1998
Af
Alexander
Alışveriş
Anahtarlar
Aniden
Anladınız
Arabadan
Ari
Ava
Barnes
Başbakanı
Bebeğin
Benjamin
Beverly
Brady
Burt
Can
Canavar
Cehenneme
Chad
Curtis
Dairesi
Daphne
Dawn
Ders
Dosya
Dövüş
Düşman
Ekip
Evime
Eğitim
Freddy
GPS
Geride
Glee
Griffin
Hak
Haklıydın
Hepimizi
Hepinize
Hepinizi
Hiçbiri
HÄ±rvatistan
II
Jared
Kalbi
Kamp
Kaybol
Kendimizi
Kuvvetleri
Ohio
Pakistan
Peg
Perry
Pislik
Regina
Savcı
Sesin
Sesini
Shakespeare
Silahları
Street
SÄ±rp
Söylemiştim
Sıfır
Tanrılar
Telefonunu
Trevor
Tucker
Tuvalet
Umrumda
Unuttum
Warren
Yarı
Yaşıyor
Yerine
Yoldan
Yoo
Yılın
Zahmet
Zamanla
Zayıf
adres
aileme
akıyor
akşamı
aleti
almadı
almışsın
altındaydı
ambulans
anlaşmamız
arabasına
aramızdaki
artan
artı
as
atacak
ayakkabılar
ayetlerini
aylar
ayrılıyor
ayıp
açıkladı
babasına
bahçede
bakarsak
bakımından
baskın
başardık
başkanlık
bedeni
bencil
bilgin
bilmesi
bilsin
birdenbire
boşluk
bulabilirsin
bulan
bulmalıyım
buluyorsun
buyrun
bölgedeki
böylesi
bırakabilir
bıraktılar
denemeye
değerinde
değişiyor
dinledim
dinlemiyor
dinlen
dolaşan
dosdoğru
doğruysa
dramatik
durumlarda
dururken
duydu
dönebilirsin
dönene
düştün
düşüncesi
ediyorduk
efendi
ekonomi
ekstra
elleriyle
eroin
evrak
farkındasın
fikirdi
fıstık
gazı
gelebilirsin
gerçekleşen
gerçeğini
getirme
geçiren
gönderiyorum
göndermiş
görgü
görmez
görüşmeyi
gösterdin
götürebilir
götürürüm
götürüyorum
gözün
güzelliği
güçsüz
halkının
hatırladığım
hayati
hazırlanın
helikopter
hepinize
hisse
hissettin
hızlıca
hızı
iblis
ikimizde
ilişkimiz
isimler
istediğimizi
istemiştin
isteğim
içeriyor
içme
kadardır
kafir
kapatmak
kapatıp
kardeşler
kargaşa
karışma
katılım
kayıtlı
kemiği
kendilerinin
kendisinden
kimseden
komedi
kontrolünü
konuşman
kopyasını
koruması
kullanır
kulüp
kurallara
kurmayı
kutlamak
kuşkusuz
köşeye
kızlardan
kızımın
liste
mahsuru
merkez
mesai
naziksin
nehrin
olandan
olandır
olsanız
oluşuyor
oturuyorsun
oynayan
oyunlar
oğlumun
polisleri
problemin
programını
rahatsızlık
saldırgan
savunmasız
servet
seviyesi
sonrada
sonuncusu
sormam
suçluluk
sürebilir
sıradışı
tahammül
tanıştırmak
tavan
tayin
tekmeyi
ton
toplantısında
tutuyorlar
tuz
tüfek
unutmak
uslu
uğraşıyorum
verdiğiniz
verirler
vermeliyim
yakmak
yakınlarında
yapacaklar
yapacağımızı
yapılır
yardımın
yatın
yaşandı
yerdir
yerken
yiyin
yüklü
yıldızlar
zamanımı
zar
zekâlı
Çirkin
Çıplak
Öğrenci
Üstünde
çalıştır
çare
çarpmış
çatışma
çekecek
çocuklarının
çorba
çökmüş
çöpe
çıkarım
öldürmedi
ölmesine
üzerimize
üzülme
üzülüyorum
İhtiyacın
İstediğiniz
İçecek
İçimde
Şimdiyse
şarabı
şarkısı
şartlı
##W
##abilseydim
##abır
##acağımızı
##allar
##amadılar
##amaya
##annetmiyorum
##arını
##ast
##au
##azgeç
##aş
##bası
##bildim
##birli
##bre
##cemi
##cs
##cıya
##derler
##dersem
##dip
##dirin
##dirir
##diyorum
##dırma
##eet
##eket
##enci
##erk
##ero
##errah
##etten
##ffy
##gulama
##hl
##iller
##inize
##ira
##iÅ
##kimi
##kinin
##klarına
##kış
##laki
##lamaları
##lamıştı
##landırıyor
##lanmıştır
##larsın
##larÄ±nÄ±
##lattı
##laşacağız
##lenelim
##lermiş
##lesi
##leştir
##liff
##lls
##lue
##lıklarını
##lıyorsunuz
##mal
##mayacağını
##mber
##memin
##mler
##naz
##nek
##nis
##oji
##orktuğunu
##oğlu
##pon
##rebilir
##reni
##ria
##rich
##rime
##rm
##rında
##selerdi
##seydiniz
##süel
##tak
##tayı
##tmayı
##tını
##ucak
##ullar
##und
##unlu
##unuza
##usa
##veç
##yanlar
##yeni
##yormuş
##zine
##âla
##âğıt
##çası
##çayı
##ömür
##öre
##ümüş
##üzgâr
##ğaz
##ğenim
##ıldırmış
##ıskanç
##ıyordum
##şet
##ştığını
##şçı
46
Acayip
Affet
Anahtarı
Austin
BakanÄ±
Bar
Başlangıç
Başını
Belkide
Brandon
Buda
Carson
Ceza
Connie
Conrad
Dediler
Demir
Dene
Dinliyorum
Doğa
Düz
Einstein
Ekselansları
Emir
Facebook
Freddie
Gavin
Gaz
Gemiyi
Gina
Goa
Götürün
Gözlerim
Haley
Hollanda
Hristiyan
Huh
Jedi
Kadınların
Kahraman
Kayıt
Konuşmaya
Koruyucu
Kusursuz
Köprü
Lise
Madison
Mario
Matematik
Muhakkak
Mutlaka
Neyim
Noah
Orayı
Oteli
Oz
Oğlunun
Oğlunuz
Paranın
Parlak
Peggy
Posta
Rudy
Saf
Soo
Sorunun
Spike
Stu
Tammy
TÃ¼rk
Uçak
Woo
Yaptım
Yoldaş
Zafer
Zira
adamlarla
adayı
aileni
ailesinden
aldığımı
alırsınız
ameliyata
ameliyatı
arkadaşlarına
arkadaşlarının
arkadaşımız
arkadaşıyım
askerleri
ata
ayrıldım
ayrıldığını
ayırt
açmış
açısı
ağzı
bahsettiğim
bakıyorsunuz
başkaları
başlamıştım
başlangıcı
bekliyordu
beğendin
biftek
bilecek
biliyormusun
bilmiyorsunuz
birader
buluşmaya
bölümüne
büyüdü
büyülü
damla
dansa
defteri
delice
demedi
demeyi
demiştiniz
dersen
devasa
değerleri
değişmiş
değiştirecek
değiştirir
disiplin
diyemem
diğerlerinden
doktorun
dolardan
doğdu
duyuyoruz
döndüğümde
düğünü
düşünmem
düşünürdüm
düşünürüm
edebiliyorum
edeceğimi
edenlerin
edersem
edilmek
ediyormuş
elektrikli
esnasında
ettiklerini
evlatlık
filme
fotoğraflar
geleceğiz
gelsene
gezi
gitmiştik
gitsek
gittiğim
gri
gördüler
gösterme
halledeceğim
halleder
hatalı
hayatımızı
inanç
ismin
itiraz
iyiydin
içimden
kadından
kalbine
kanal
kanını
kapattı
karısının
kazanmış
kendimiz
kimmiş
konuyla
konuşmasını
konuşuyordum
kısmına
kızdan
mahrum
miymiş
müsait
naziksiniz
normale
numaraya
okuyan
olabiliyorsun
olaydan
olurken
ordan
oturmuş
oturur
oynadı
oynar
oyunları
parkta
perde
performans
pozitif
rahatla
raporunu
rastgele
saniyede
sattı
saygın
sağlayacağım
sebebim
seferde
sesin
sevinirim
sezon
sik
sikeyim
sizleri
standart
takılıp
tanıştırayım
tartışmaya
tembel
temize
tereddüt
terslik
tiyatro
tören
ucunda
uld
usta
uyarıyorum
uyurken
uç
vakası
varız
veremezsin
verimli
vurup
yaklaşma
yaparsak
yaparsınız
yarına
yatağında
yağıyor
yaşadık
yaşayıp
yemekleri
yiyen
yolcu
yolunun
yÃ
yürüyerek
yıllarda
zamanlama
zombi
Ölen
çalışmaları
çalıştığımız
çekiyorsun
çekme
çektin
çocuktu
çorap
çıktığımda
ödemeye
ödeyeceksin
öldürdüler
öldürdüğü
öleceğim
ölümden
ölümüyle
üzereydim
İkimizin
İman
İsim
İsterseniz
##60
##DE
##IP
##ahi
##ahşiş
##alanı
##alıyor
##amadığı
##amayan
##amazdım
##amış
##anne
##ano
##anız
##armış
##ase
##atar
##attı
##atörü
##atın
##aybeden
##aşırmış
##bani
##bella
##blam
##boratuvar
##bun
##büm
##bında
##cede
##ciye
##ddy
##demedim
##derili
##derken
##deydi
##dilen
##dilmiş
##dis
##duğunda
##each
##ebat
##eber
##ehre
##elerin
##ells
##elt
##ens
##erdi
##erez
##ersen
##etici
##fedin
##fen
##fil
##fsiz
##gins
##gue
##hafızlar
##haw
##hlı
##ies
##imce
##imdi
##irinç
##iski
##istan
##iver
##içeği
##ju
##jı
##kilerden
##ksel
##kuş
##kımı
##laj
##lamadım
##lanmadım
##larak
##latmak
##layabilirsin
##lduk
##leceksin
##lee
##lemi
##lendiren
##leneceğim
##liğimi
##llie
##lüler
##malıydım
##mazsa
##memizi
##meyeceği
##mlu
##mıyordu
##nleri
##nmedin
##nri
##nta
##ntiye
##nıyorsun
##nızla
##okteyl
##olf
##omitesi
##ope
##oridorun
##orkacak
##oğa
##pard
##ppy
##rdığı
##reyi
##rgan
##rica
##rie
##rrick
##rson
##rtik
##rusu
##sch
##sche
##slak
##sland
##sley
##stal
##sur
##tasyon
##tektif
##tiyorum
##tlı
##town
##ttım
##ttın
##tuğunu
##tırdı
##ude
##uklusun
##umda
##uta
##uzun
##varlak
##yeleri
##yemezsin
##yene
##yeye
##ygulama
##yınca
##zekalı
##zerini
##zir
##çilerin
##çinin
##çoğu
##ökyüzüne
##övme
##ücre
##ümüzde
##üstah
##üyoruz
##üzü
##üşme
##ğazını
##ınmış
##ırıp
##ıtmak
##ıya
##ızdır
##Ş
##şlar
2010
Adınız
Akıl
Anahtarları
Andrea
Ankara
Annenle
Aralarında
Archie
Arizona
Atlantik
Ağzından
Aşkım
Bauer
Bayramı
Başla
Bennett
Bernie
Bn
Boktan
Bond
Boy
Buddy
Bugüne
Bürosu
Büyüleyici
Cass
Choi
Christina
Cindy
Claude
Do
Dong
Durma
Elaine
Ellerinizi
Etrafı
Fare
Fikrini
Fort
Geçmişte
Grubu
Gözleri
Harekete
Harikasın
Hayatı
Hughes
Hugo
Iyi
Jan
Jonas
Kanser
Kapalı
Kaçak
Koşun
Kılıç
Lester
Lynn
Martinez
Mercedes
Meyve
Moore
Nasıldı
Nicholas
Onlarda
Percy
Priştine
Quentin
Rio
Rodney
Sokakta
Sonny
Sonuna
Sovyet
Stewart
Söylemem
Süleyman
Sık
Sınıf
Taze
Tedavi
Texas
Thor
Uyanık
Wesley
Whoa
Yara
Yarbay
Yolun
Zekice
ahiret
almışlar
almıştır
anlamış
anlatın
annenle
annesiyle
araştırdım
arı
asil
atlar
atışı
ayaklarını
azabından
azıcık
açıyor
aşığım
bahçesi
bakacağız
bakarken
bakarsın
bağı
beklenmedik
bekleyecek
belge
belgeler
bensiz
beynin
bilgiye
biliyormuş
birlikteyiz
bitki
bitmez
bitmiştir
bitsin
bozulmuş
bulduğun
bulman
dayanıklı
deliye
deriz
değildik
değiştirdin
dikkatle
diplomatik
diyorsan
dokunmak
doludur
donmuş
dönebilir
düşüneceğim
düşünemiyorum
edebileceğini
edene
elindeki
emirleri
emrini
erkeklerden
etmişlerdi
etmiştik
ettirmek
evlendi
evleniyor
evrenin
eziyet
farkettim
fazlasına
filmleri
garson
gecelik
gelecekte
gelirsen
gelmem
gelmesine
gerektiğine
getirdiniz
getirdiği
geçirmez
girince
girmeyi
giyen
gruba
gökleri
göremedim
göremez
görevden
görmesini
görürsem
görüşmem
götürdüler
gülümseme
günlerini
hakkıyla
has
hat
hatayı
hayir
hayvanı
hepinizi
hepsine
herkesle
hissedebiliyorum
hissedeceksin
hizmeti
ikinizi
ikiz
ila
inanıyoruz
inceledim
inceleme
inci
ip
isteyip
istiyorsak
içindeydi
kafamda
kafaya
kalamazsın
kaldıralım
kaldığı
kalmanı
kanunu
kanıtları
karşılaştık
kaybedecek
kelimesini
kemikleri
kesik
kimden
kimdir
kitapta
kola
konuşamam
korkuttun
korkutuyorsun
koyalım
koymaya
kraliyet
ktir
kullanabiliriz
kur
kurmaya
lafı
lastik
leke
malları
motoru
nerdeyse
odanın
olamazdı
olmadığından
olmalıydım
olmamıştır
olursanız
oradaydım
oyunda
parmağını
partisine
patronu
patronun
pişmanlık
pound
randevusu
rekabet
rüyalar
sade
samimi
satıyor
saçları
sevmiyorsun
seyirler
seçmek
sonucunda
soracaktım
suçları
sürüp
sınıfı
sınırları
takılmak
takımın
taşıma
temasa
tersi
tertemiz
tutmuş
tıraş
uyandım
uygunsuz
vaka
vaziyette
verdiğimi
verirdim
verirken
verirse
vermesini
vurmuş
vücudu
yak
yaklaştı
yapabileceğimi
yapacağın
yapamadım
yapamayacağım
yapmazsan
yapmışlar
yapı
yaver
yazarım
yazdığı
yaşadın
yaşadığımız
yaşayamam
yaşından
yenmek
yerdi
yetkililer
yorucu
yukarıya
yurt
yükünü
yüzme
yılını
zamandı
zira
ziyade
zordu
zorundaydı
Ä±klamada
Çalışma
Öyleyim
Ülke
çalmış
çavuş
çağıracağım
çağırayım
çağırdım
çekerim
çektiğini
çoğunlukla
çıkaran
çıkarsın
çıkarıyorsun
çıkarız
ödedim
ödüyor
öldüreceğini
öldürmekten
öldürün
ölme
ölçüde
önlemek
öptü
öğreneceksin
öğrenirse
üzerinize
İspanyolca
şahane
şeytani
##EY
##LER
##OR
##SS
##TU
##aa
##abi
##abil
##abildiğim
##abildiğini
##abret
##acaktım
##ace
##acey
##aga
##ahil
##aint
##aki
##ambaşka
##ame
##anlara
##anlı
##anna
##anus
##aos
##arj
##avuzu
##azık
##banın
##bb
##bilseydim
##boratuvara
##boya
##bury
##cere
##cey
##cisin
##cup
##cüsü
##debilirim
##delim
##derdim
##desin
##dikten
##disi
##dırdım
##dığınızı
##ebileceği
##ece
##ederasyon
##eke
##ekle
##ekleri
##elebek
##emezler
##ermi
##esinin
##etik
##ettim
##eğini
##eşimden
##fettiş
##fia
##for
##geyi
##gie
##gisi
##graf
##hannon
##hber
##hit
##how
##hre
##htaç
##iko
##iles
##ilosu
##ington
##ink
##iro
##irsen
##itt
##iğe
##işleri
##kalı
##kanlı
##ksik
##kulu
##kün
##kürler
##lacağını
##lanmayı
##latma
##laşması
##lendirir
##lendiğim
##lenn
##letmek
##linde
##linik
##liyet
##luğunda
##mbe
##menize
##mini
##mışlardı
##mıştın
##ndy
##nger
##ngo
##niği
##nların
##nmesi
##nÄ±n
##oför
##ork
##orman
##ound
##ox
##pati
##pton
##rabilirsin
##reb
##reden
##retti
##rilik
##rne
##rop
##rıyorlar
##saya
##sinizdir
##siyim
##ssız
##steleri
##sti
##syona
##taba
##tacağım
##tikleri
##ting
##tmazel
##urie
##ursun
##urur
##uzda
##uzluk
##vara
##vasyon
##vekkilim
##venleri
##very
##yemiyorum
##yetik
##zsak
##¼Ã
##âfirler
##çiyi
##çli
##çya
##öbrek
##öceği
##örün
##ükmü
##ünel
##ürümüş
##ütüphane
##üy
##üğmeye
##ılar
##ılın
##ırıyor
##ıçıma
##ışlı
##şmez
3000
95
Adamlarım
Alarm
Alfred
Arabam
Archer
Balkan
Bas
Bates
Bebekler
Becky
Bender
Bilmiyoruz
Birine
Birlik
Bones
Bridget
Brody
Bugünün
CEO
Campbell
Cassie
Central
Dağ
Demokrat
Deniyorum
Devletleri
Duygusal
Duymak
Ella
Em
Erik
Flynn
Geliyorlar
Geniş
Georgia
Geçidi
Gitmelisin
Grand
Gregory
Göreceğiz
Görüşmek
Hall
Ivan
Jasper
KM
Kafasını
Kanıt
Kapıya
Kardeşimin
Kendilerini
Kimlik
Kod
Kuş
Las
Latin
Little
Makine
Maymun
McCoy
Meksikalı
Meşgul
Minik
Nehri
Nerden
Neredeyim
Niles
Nişan
Oku
Olsun
Oo
Parasını
Peynir
Saç
Sheila
Sikeyim
Tutun
Uslu
Uyuyor
Val
Video
Yapman
Yazı
Yerde
Yu
Ziva
ajanı
aklımda
akıp
alıntı
andolsun
anladığım
anın
arkamdan
arkamı
arzu
askere
ayrılıp
ağız
aştım
babacığım
bahsetme
bahsetmek
bakabilirim
bara
batıl
başlayan
beklerim
beşinci
biber
bildiğimi
biletleri
bilirler
bilmelisin
binada
biteni
boylu
br
bulaşmış
bulması
bulursan
bÃ
bölgesel
büyükbaba
bırakmam
bırakmaya
cehennemde
cinayete
davaya
davranmak
dayalı
deliğe
detayları
değilsen
değişiklikler
değiştirmez
doktorum
dursun
duruşma
dâhil
dönmesini
dükkan
edildim
elbiseyi
etkiledi
etmediğini
etmekle
etmemiştim
ettiğinden
evcil
farklıydı
fikrimi
finansal
finanse
geldiğine
gelmemiş
gerçektir
geçenleri
geçir
geçireceğim
geçirip
geçiriyorsun
geçmesini
gidebilirsiniz
gideceksiniz
gitmemi
gitmeyeceğim
go
gömülü
gönderilen
görevini
görülen
görülmüş
görünmek
görüştüm
gözetim
günümü
güvenmek
halletmek
hayatlarını
hayra
hayranı
hazırlar
hediyeler
hikayeler
hisset
hoşlandım
hoşlanmıyor
huysuz
hırsızı
iflas
ihsan
ilaçlar
ilet
iletişime
insanlık
ipi
istediğinde
istemişimdir
isteyebilirsin
izleyen
izliyordum
içindedirler
işinizi
işlerine
kadınlarla
kalacağını
kalpli
kaplı
kararını
karışımı
karşıma
kas
kasa
kasabanın
katıl
kavgaya
kazan
kazanma
kaçınılmaz
kaçırıyorsun
kelimeler
kesti
konularda
konuşmalısın
koyma
kraliçesi
kullandığını
kurtul
köpekleri
köpeğin
kır
kırıldı
kızdı
kıçına
lerde
listede
listesine
lordum
lüks
lütuf
lık
ma
mali
malzemeleri
masaj
masasında
mide
mücevher
nasil
negatif
nehir
nesil
neyle
olacakmış
olamıyorum
olayla
olmamızı
olmayacaksın
oluyordu
oluyorlar
onlarda
oralarda
oranı
pahasına
paketi
papaz
papel
parçalar
plana
polisle
pozisyon
protesto
rahibe
rolünü
sabahı
sabırlı
sakat
sakinleş
salla
satıcısı
savcı
sayısını
sebebiyle
seviyordu
seviyordum
seviyorsan
silaha
sinema
sistemin
somut
sorumluluğu
soylu
sular
suratını
suçlamıyorum
söylediğimde
söylerse
söyleyemezsin
söze
sözlerine
sözlü
süslü
sıcaklık
sıkıyor
tamamını
tanrılar
tanışmış
toplamaya
trene
tümüyle
ucube
ulan
vaftiz
vardım
varmadan
verdiğinde
vuracağım
yakalandı
yanan
yanılıyorsun
yapmıştık
yaptıklarının
yaptıysa
yaptığında
yaralar
yaramayacak
yatan
yatağın
yatmış
yaşıyorsunuz
ydi
ydı
yemekler
yerlerden
yöneticisi
zil
Ölümcül
Önden
çalışıp
çağırdın
çektiği
çeviriyor
çocuğunun
öldüler
öldürüldüğünü
öncesinde
önündeki
özelliği
öğretmenim
üstelik
üyelik
üzerlerine
üçü
İn
İnanın
İnanıyorum
İptal
İstihbarat
İyileşeceksin
İçimden
Şahane
Şampiyon
şahsi
şayet
şeylerde
şeymiş
şiddetle
şüphem
##70
##FA
##YOR
##abildi
##abilirler
##abilmesi
##acı
##addede
##alları
##alışıyor
##anie
##apraz
##apşal
##arajda
##arar
##ardiyan
##arma
##armağı
##arpan
##atlamış
##atmak
##atranç
##atılık
##ayak
##aydın
##ayla
##ağ
##ağıda
##biya
##cadele
##caz
##cks
##dak
##daşı
##deceğiz
##dinal
##dt
##dümü
##dırdın
##ebinde
##efalet
##eng
##epe
##etle
##ew
##eyhinde
##feksiyon
##form
##frey
##gzersiz
##het
##hkûm
##hoo
##hor
##ider
##ifre
##ilbert
##ilin
##inen
##inger
##inmiş
##innie
##ipi
##iyafet
##izim
##ksin
##kıya
##ladığımız
##larÄ±nÄ±n
##larınla
##laşım
##lendiği
##lenmiyorum
##lilik
##live
##liyorsun
##lıktır
##lız
##madılar
##malarına
##mazsan
##mazsınız
##mediler
##mir
##mişiz
##nağı
##nmişti
##nn
##not
##num
##olis
##olly
##olojik
##ond
##onte
##oom
##orm
##osta
##ou
##ous
##ques
##rado
##ramı
##ranın
##rarım
##rağın
##receğiz
##rengi
##rerek
##rest
##retmen
##retmeye
##right
##rix
##rkçı
##rl
##roz
##rue
##rz
##samıyor
##sat
##sil
##sizin
##ske
##stifa
##sünde
##tabilir
##tileri
##tos
##törü
##uca
##uda
##uldum
##umuzu
##ure
##urma
##utin
##uşturur
##vania
##vu
##wald
##yacaktır
##yacağı
##yalar
##yaş
##yd
##ydiler
##ydiniz
##yeceksiniz
##ylon
##ymak
##yorlardı
##ysel
##yüzü
##yüzünü
##zat
##zeret
##zlik
##zur
##öklerin
##üce
##ünlü
##ürler
##üyü
##ğime
##ğundan
##ğız
##ılamaz
##ıldığında
##ılmadan
##ımdır
##ıtır
##ışman
##şama
##ştik
##şığa
62
Adil
Aklımdan
Aklında
Anlarsın
Anton
Aradığınız
Arapça
Araç
Arkadan
Atlantis
Atılgan
Ağzına
Aşkın
BU
Baskı
Belçika
Bugünden
Cathy
Cenaze
Chan
Cynthia
Dert
Donny
Dünyaya
Düşünüyorum
Emekli
Erin
Ernie
Evans
Filmin
Fitz
Gazete
Gerekirse
Guy
Göklerde
Gözlerimi
Gözlerin
Hafif
Javier
Jon
Kalbim
Kalkın
Kimdi
Kocası
Kralı
Lady
Ling
Luis
Lut
Mal
Maurice
Michel
Mick
Nadia
Nesi
Okulun
Operasyon
Oturma
Oturup
Papaz
Paranı
Paraya
Pierce
Pişman
Porter
Reed
Reynolds
Satın
Si
Silver
Sonsuz
Tadı
Takma
Tanner
Tavşan
Telefona
Toprak
Ucuz
Unutmayın
Utanç
Vergi
Vücut
Wall
Worf
World
Yahudiler
Yale
Yat
Yerini
Yetişkin
Yugoslavya
Yılan
acısını
adındaki
akla
akşama
almamış
almayacağım
altıncı
alınca
anahtarları
anahtarlarını
anlatıyorsun
anlaşmanın
anti
aradılar
aradınız
aradığı
arkadaşıyla
arkamda
atılmış
aydan
açılan
ağaca
ağacın
baktık
bakıyoruz
bal
baska
basınç
bayılır
bağımlı
bebeğe
bekliyorsunuz
beter
birbirimizin
birbirleriyle
birde
birim
birşeyi
bombayı
borcun
budala
bulamaz
böylesine
büyüleyici
cinayetten
dal
davranmayı
denedin
derine
devriye
dilediğine
diyordun
don
doz
duygular
duygusu
dönmeliyiz
dükkanı
düzene
düşünmen
düşünmüyorsun
elektronik
eliyle
erkeklere
etkileri
etmeleri
etmişler
etrafındaki
etsen
evren
eğitimli
eğlenmek
fantezi
fasulye
fikriydi
fiyatı
geceydi
geldiğimi
geldiğimiz
gelmezdi
gerektirir
gerçekçi
gezegeni
geçebilir
geçersiz
geçirdiğini
gidemeyiz
giderdim
gidersem
girsin
gittiğimi
görebilirsiniz
görmeliyim
görüldü
görürsen
göstergesi
gösteririm
gözlerim
gözükmüyor
gülünç
günaydın
güzeli
haftalar
halkını
harikasın
havuz
hayvanat
hepinizin
hikâyesi
hikâyeyi
hoşlanmaz
hoşlanıyorsun
ihlali
ihmal
ilgim
ilişkiyi
ilki
inanmam
inanırım
istemedin
isterdin
istesin
iyiydim
işlemi
işlerde
kalanında
kalbin
kaldığım
kale
kaliteli
kalkın
kalmamıştı
kalmasına
kalmıştım
kanla
kanseri
karını
kasabayı
kazanıyor
kazasında
kaçma
kesici
kesme
keçi
kimde
kin
koluna
komiksin
konser
konuşuyorsunuz
koridorda
korkuyorlar
koruyun
koymuş
koyu
kullanacak
kullanacağız
kuzenim
kuzeyinde
küçücük
kıdemli
kızgınım
lezbiyen
liderleri
listesinde
maddi
mahvetmek
masal
maça
melekleri
meme
mezar
mutfağa
mıydım
notlar
nü
nün
ofisimde
okuluna
okuyun
olacağından
olmadın
olmalarını
oranda
ormana
ortasına
oğluna
palyaço
patlayacak
planlarını
poz
programına
saha
sahibiz
salonu
sandalyeye
sandı
saniyen
sanmıyordum
sanıyorlar
savunmak
sağolun
senaryo
seçkin
sikik
sitesi
söylememe
söylemeyecek
söylesin
söyleyebileceğim
söyleyemez
sözleşme
süreç
sıcaklığı
sıralar
takıldı
takıma
tanem
tanışmıştık
tartışmak
taşındı
tecrübe
tekerlekli
teori
terör
tevbe
teşebbüs
tuttun
tuvaleti
tövbe
ucuna
ufacık
umrunda
utanıyorum
uğraşıyor
varlığını
varmı
vergisi
yakalayın
yapamazsınız
yapmama
yaptıklarınızı
yapıyormuş
yarası
yaratmak
yaratır
yardımıyla
yarışma
yatmaya
yazmaya
yaşadığımı
yaşlarında
yerlerine
yim
yolumuz
yürürken
yürüyor
yüzbaşı
yüzüstü
Ödül
Öldürün
Öylesine
Ülkenin
Üzüldüm
çağrısı
çekeceğim
çizgiyi
çörek
çıktılar
öderim
ödüyorum
ölürüm
öneriyorum
ülkedeki
İsmim
İçeriye
İşlerin
Şaşırtıcı
şahitlik
şoförü
şuradan
##43
##90
##IDS
##YA
##ael
##afak
##ahid
##akip
##alo
##altında
##amadığını
##amamış
##amur
##aniğe
##ath
##ati
##atıp
##azgeçtim
##aşma
##aşırmadım
##baharda
##basyon
##bağı
##beyin
##bildiğini
##bileceğimizi
##boratuar
##but
##bını
##caktım
##ction
##daş
##deler
##diğimden
##dıktan
##eceğinden
##eda
##eketi
##elle
##emedin
##ener
##eniyor
##ennet
##erie
##erine
##etim
##etimi
##ezi
##faz
##fini
##fon
##fu
##fında
##gaç
##greb
##hale
##helsea
##herry
##hum
##hşete
##ibe
##idan
##ifreyi
##ikast
##ilebilir
##iste
##itesi
##itter
##iğin
##iştim
##jital
##kalya
##kanlık
##kas
##kel
##keti
##kie
##kip
##kraba
##laf
##lamadan
##lanı
##lanım
##larımızda
##lasik
##laya
##layamaz
##laştılar
##leneceğini
##lerinle
##lgi
##lmadık
##lun
##löf
##mamın
##masız
##mağı
##melerine
##memesi
##mes
##migo
##minler
##mişsiniz
##mos
##msız
##müyorsun
##nacağım
##nada
##nemez
##nimi
##okan
##omada
##ono
##oranı
##orktun
##oro
##osis
##ostüm
##otter
##perm
##pesi
##pet
##rance
##ras
##rayım
##rebilirim
##reen
##rez
##rian
##ring
##rio
##rmeyi
##roy
##rtibata
##ryce
##sap
##sarım
##sede
##siler
##sne
##sulü
##sım
##taya
##tham
##timiz
##tirici
##tirim
##tlu
##tmeden
##tmeyecek
##tris
##ttiğini
##tty
##ttık
##tuz
##tüğün
##tırdım
##uan
##ubuğu
##uka
##ulma
##umhurbaÅ
##utu
##uyruklu
##uzdur
##uzen
##venlerden
##vette
##vian
##ving
##vir
##vı
##yacağımı
##yacım
##yasal
##ydılar
##yetini
##yette
##yra
##yÄ±
##zak
##Ã¼kÃ¼met
##Ä±nÄ±n
##âk
##ât
##ö
##ökleri
##öndür
##önetim
##önüllü
##öp
##öt
##öçmen
##ülü
##ütü
##üyorlar
##üşmek
##ý
##ğer
##ğimden
##ğlu
##ğumun
##ıcılar
##ımılda
##ınızda
##ızla
1991
1999
39
49
57
58
Aaa
Adamlar
Adem
Aklına
Alaska
Alkol
All
Amelia
Amına
Anneciğim
Asker
Açın
Bakar
Baltimore
Bağlantı
Başardın
Başlayalım
Becca
Birleşmiş
Bitir
Brennan
Bruno
Calvin
Collins
Damien
Data
Dağı
Denizi
Derdin
Doğruca
Düşünüyordum
Elimizdeki
Eninde
Finch
Flash
Gaby
Geceyi
Gelen
Geminin
Gerisini
Gidecek
Gölü
Hamilton
Hapishane
Hastings
Havalı
Hood
Huzur
It
Judith
Kadını
Kafana
Kafası
Kat
Katili
Kid
Kirli
Kongre
Konsey
Kuru
Kuşkusuz
Kış
Le
Lola
Long
Luther
Mahkemesi
Marc
Marilyn
Marissa
Mektup
Merlin
Mini
Oha
Olanlar
Olumsuz
Original
Otomatik
Otto
Oyunu
Panik
Paran
Patronum
Pembe
Peyton
Philadelphia
Polisin
Profesyonel
Programı
Renee
Sahne
Samuel
Sanıyorum
Savaşta
Savaşın
Sağlıklı
Sebebi
Selamlar
Sidney
Silahlar
Sinir
Sir
South
Susie
Tamir
Televizyon
Tessa
Toz
Turk
Vampir
Wes
Yarısı
Yoğun
adıma
aileler
alabilirsiniz
alabilmek
alacaklar
alamayız
amba
anlatma
anlayacak
arabasının
araştırmak
arkadaşıma
arÅ
asit
atarım
ayık
azabın
azgın
aziz
ağ
bankaya
baÄ
başlattı
bedel
bekleyip
bekliyorduk
biliyorsan
bilmediğini
binip
bitmek
bittiği
bolca
boru
bulacağını
bulursak
buradaymış
buralara
böylelikle
böyleydi
büyüklük
bırakmayı
bıraktığını
camdan
daim
dediğimiz
desin
değiştiriyor
değiştirmeye
değiştirmiş
dikiş
dikkatimi
dileseydi
diğerlerinin
dişlerini
dokundu
doldur
dosyasını
doğan
duyabiliyorum
duymuyorum
duyuyorsun
dÃ
düşünceli
düşürdü
edebiliyor
edilmez
ejderha
elçisi
endişelendim
eninde
erişim
etkiler
etsene
evlenir
evler
evrakları
ezmesi
feci
fu
geleceğimi
gerekiyormuş
gerçekleşecek
getirmesini
geçmişe
girdiği
gireceğiz
girmesini
göklerin
gönderilmiş
gönderir
gönül
görünüyorlar
götüreceğiz
götürüyorsun
gözüküyorsun
gülüyorsun
güvendesin
güvenin
güvenliğini
haftadan
haliyle
halledeceğiz
harf
hastanın
hayvanların
hayırlıdır
hokey
hoşlandığını
huzuruna
huzurunda
ideal
iftira
ikili
ilişkim
inandık
ismim
istemediğimi
izliyorsun
içime
içindeyim
içiyorum
içmem
işlerinde
kadarki
kadındı
kalanları
kalkmış
kalman
kanat
kapana
kapsamında
karara
kararları
katıldım
kaybediyor
kaybediyoruz
kaçmayı
kaçıyorsun
kendiliğinden
kira
kocasını
kodu
kokuyorsun
komplo
konuşmanı
korkmuştum
kurallar
kurtaracağım
kurtuluş
kuruldu
kuzu
kırdım
kıymetli
kızına
larda
liderlik
mahalle
mail
mantıksız
meslek
mor
muhabir
müydün
namazı
odasından
ofisime
olabilirdim
olamayız
olasılık
olduğumuza
olmadığın
olsaydık
olsaydınız
olurduk
onlarca
otobüse
otopsi
oynuyoruz
paraları
parlamento
peri
pişmiş
projesi
rehin
rehine
resme
saatlerce
sahada
sahilde
sahipliği
sakladığını
saldıran
salı
sandığın
satan
saçlarını
sebze
severdim
sevgilin
seviyorlar
sevk
seyirci
sil
sokar
sorunların
sunuyorum
söyledik
sözde
süreye
sıkan
sıkışmış
sınırsız
sırtında
tamamdır
tarafın
tarihini
tekiyim
teması
temizle
teorisi
teşkil
tişört
ucu
uyumaya
uyun
uzanan
verebilirsin
veriyordu
vermiyorum
vermiştir
versiyonu
vuran
was
we
yakalayıp
yanlışlık
yapacağına
yaptıktan
yaralandı
yaraları
yarısına
yataktan
yatağı
yatağına
yazarı
yazdın
yaşı
yerdeki
yoksun
yorum
yudum
yönetici
yönetimi
yürüyen
yüzyıl
yüzyılda
yığını
zevki
ziyaretçi
Çılgınca
Öteki
Öğrenmek
Üzülme
çalışacağız
çalışmasını
çekimi
çeyrek
çifte
çocukluk
çıkamaz
çıkmayacak
çıkmıştım
çıkışı
ödülünü
öfkeli
öldüreceksin
öldürmem
öldürmesi
öleceğiz
önemsiyorum
örnekleri
ötesi
öğreneceğim
öğrenmiş
üzüm
İblis
İleride
İnanabiliyor
İsviçre
Şikago
Şok
şampiyonu
şansa
şarkısını
şekerim
şeyiniz
şirk
şık
##!
##"
###
##$
##%
##&
##'
##(
##)
##*
##+
##,
##-
##.
##/
##:
##;
##<
##=
##>
##?
##@
##Q
##[
##\
##]
##^
##_
##`
##q
##{
##}
##~
## 
##¡
##¢
##£
##¤
##§
##©
##ª
##«
##®
##°
##±
##²
##³
##´
##¶
##º
##¼
##¿
##Á
##Â
##Æ
##Ç
##È
##É
##Í
##Î
##Ñ
##Ö
##Ø
##Ý
##ß
##à
##á
##ã
##ä
##å
##æ
##è
##ê
##ë
##ì
##í
##ï
##ð
##ñ
##ò
##ó
##ô
##õ
##ø
##ú
##û
##þ
##ć
##Č
##č
##đ
##Ğ
##ł
##ń
##š
##ţ
##ž
##Λ
##Υ
##α
##ε
##ι
##ν
##ο
##ς
##τ
##φ
##ό
##А
##В
##З
##И
##Й
##К
##П
##Р
##С
##Х
##Э
##а
##б
##в
##г
##д
##е
##ж
##з
##и
##й
##к
##л
##м
##н
##о
##п
##р
##с
##т
##у
##х
##ц
##ч
##ш
##ь
##ю
##я
##Ә
##ә
##ا
##ب
##ح
##خ
##ر
##س
##ش
##ص
##ك
##ل
##م
##ن
##ه
##و
##ي
##پ
##ک
##ی
##ạ
##ấ
##–
##—
##‘
##’
##“
##”
##•
##…
##′
##₣
##€
##ℓ
##™
##−
##≤
##─
##♪
##♫
##エ
##シ
##ヌ
##ブ
##ル
##ー
##루
##블
##씨
##엔
